FFFFFFF0
FFFFFFF2
FFFFFFF7
00000005
FFFFFFF9
FFFFFFFB
00000002
FFFFFFFD
FFFFFFF3
FFFFFFF7
FFFFFFF9
00000002
FFFFFFFB
FFFFFFFF
00000006
00000006
FFFFFFFC
FFFFFFFB
FFFFFFFA
FFFFFFF8
FFFFFFF3
00000003
00000005
00000003
00000003
FFFFFFFE
00000003
FFFFFFF6
FFFFFFFE
00000008
00000005
00000001
00000003
00000005
FFFFFFFA
00000002
00000006
00000003
FFFFFFFE
00000004
FFFFFFF7
FFFFFFF5
00000004
FFFFFFFF
FFFFFFF7
00000008
00000000
00000000
00000001
00000006
00000007
00000001
00000001
FFFFFFF0
00000007
FFFFFFF9
FFFFFFFD
00000005
FFFFFFFA
00000002
FFFFFFFE
FFFFFFFE
FFFFFFF2
00000007
FFFFFFF7
00000003
00000005
FFFFFFFE
FFFFFFFB
FFFFFFFB
FFFFFFF5
FFFFFFFB
FFFFFFFB
FFFFFFFF
FFFFFFF6
FFFFFFFD
00000002
00000003
FFFFFFF2
0000000A
00000008
00000001
FFFFFFFE
00000003
00000007
00000006
FFFFFFF9
00000002
FFFFFFFA
00000004
00000006
FFFFFFFE
00000004
00000005
FFFFFFF5
FFFFFFFA
00000005
FFFFFFFC
FFFFFFF6
00000009
FFFFFFF8
FFFFFFF9
FFFFFFFE
00000000
00000007
00000005
FFFFFFEA
FFFFFFFD
FFFFFFFB
00000004
0000000C
FFFFFFE3
0000000A
FFFFFFFF
00000007
FFFFFFFE
FFFFFFFC
00000002
FFFFFFFF
FFFFFFFD
00000005
FFFFFFFE
FFFFFFFF
00000003
00000006
00000002
FFFFFFFF
00000002
FFFFFFFB
FFFFFFFC
00000001
00000007
00000001
FFFFFFFE
FFFFFFFE
FFFFFFFD
00000004
FFFFFFFD
FFFFFFF8
FFFFFFFE
FFFFFFBD
00000003
FFFFFFFE
00000003
00000007
00000005
00000003
FFFFFFF5
FFFFFFFA
00000003
00000005
FFFFFFFF
FFFFFFFE
FFFFFFFB
00000005
FFFFFFFE
00000003
00000001
FFFFFFED
00000008
00000007
FFFFFFFF
00000000
FFFFFFFF
FFFFFFFC
00000003
FFFFFFFE
00000007
FFFFFFFD
FFFFFFF8
00000008
00000001
00000008
00000002
00000006
00000004
FFFFFFFF
00000006
00000001
00000005
FFFFFF81
FFFFFFFA
FFFFFFFC
00000004
FFFFFFFE
00000002
FFFFFFFE
00000001
FFFFFFFC
00000002
FFFFFFFD
00000004
FFFFFFFF
FFFFFFFF
00000005
FFFFFFF4
00000000
FFFFFFFB
FFFFFFF7
00000004
FFFFFFF3
00000005
00000002
FFFFFFFD
FFFFFFCC
FFFFFFFE
FFFFFFF8
FFFFFFF8
00000000
00000005
00000006
FFFFFFFE
FFFFFFFF
00000006
00000004
FFFFFFFF
00000009
00000007
FFFFFFFD
00000006
FFFFFFFC
FFFFFFFD
FFFFFFFC
FFFFFFFE
00000002
00000004
00000001
FFFFFFFE
FFFFFFF1
00000006
00000008
FFFFFFB7
00000004
00000002
0000000A
00000002
00000003
00000001
FFFFFFFD
00000004
00000004
FFFFFFFE
FFFFFFF9
00000006
FFFFFFF8
FFFFFFF3
FFFFFFFF
00000005
FFFFFFFD
00000009
FFFFFFFF
00000009
FFFFFFF6
00000001
FFFFFFFC
FFFFFFFA
FFFFFFFF
FFFFFFF4
FFFFFFEF
FFFFFFFB
00000008
00000001
00000004
00000002
00000002
00000006
FFFFFFF6
00000004
FFFFFFFF
00000004
00000007
FFFFFFFE
FFFFFFF9
00000000
FFFFFFFB
FFFFFFF5
00000005
00000002
FFFFFFFA
FFFFFFFC
FFFFFFF3
FFFFFFF8
FFFFFFFB
00000000
FFFFFFF6
00000006
00000001
FFFFFFFA
FFFFFFF4
FFFFFFFB
00000008
FFFFFFE1
0000000A
00000005
00000008
00000002
FFFFFFFD
00000000
FFFFFFFE
00000004