030203FE
02FD00FE
0002FDFD
0D080303
FEFFFFFE
0302FFFD
0203FDFD
FFFEFE03
00FD0604
0F130510
25191C1E
0C05111F
17110A08
FFFE0003
FDFF0001
09050714
F0E8F00E
F1FD071C
2C261E19
0FFB091C
03FBFDFE
FDFE0206
0007FAF9
EC0208FE
F71F0607
FCF2151E
0A1B0C02
09040D01
FFFDF5FB
FD08FBFA
EF02F4FD
EFFE100A
04F70701
011E0E12
0C121B03
FEFFFDEF
F414F7F0
F8030503
FA050C07
100B07FF
1A0C1019
F5E41002
0300EBF5
ECF8EC06
0AF1F3FA
03050A05
10101314
270AF0FC
FBEA0802
FDF8EAEC
DBF9EA07
05050D03
02F10800
0C07070D
2005E1E0
02110900
0100E8E6
D3FDFEF8
F6020701
05FAFAEB
E1CBD3C5
CDC2B9CF
F0EA1401
01FEE6F3
D0DDF7F4
F1F9FB03
0CF8F3DB
CCB6918B
8189A2C0
DEE8F001
0001DEF2
EBEB01FF
0BF9F30E
0CFFEEFC
F6F4E7E7
D0C8B7CB
DDD3E702
FC00090A
FAFB14FA
FAFE0700
02080008
180C030A
FDF5EAF9
E7C8E506
0300090A
04020606
06FFF60E
F9000507
15F90B04
0CFF030B
FFDDF4FE
FF010A1F
19050612
0701F404
05FDFCFA
FEEDFDFB
0402FE10
15EEE0FA
0900FD16
1AF707FC
0206090F
F4F100F7
0FF30C0B
0A05FC02
0602D8FD
0301FF13
F71116F8
FAF8FD05
FFF30000
06030F0A
0609F2F4
0A14DDF9
FDFFF21E
0EFE06F7
FAF1FEF9
0205100C
0A03FF07
0C0107F7
0E05CEE7
02FDEC10
FA0714EE
03FC02F8
F0FC07FF
F2F40300
0D180B03
0FF7DDD9
02FBF607
06190FF2
04FD02E8
E4FB120D
0803080D
00190502
12F0D3F1
00FC10EC
0410FBFD
0B00F8FC
09050D04
06FDF9F8
08FEF90F
1F02D6F9
02FC0EF8
1909FBF9
0C0A06F8
EC02060C
0C09FC10
0A01070D
0D0FEC01
FDF6EC09
0A0A000A
05FA0406
05050811
0B0B0F0D
1B120BFF
171B08FF
FDFFDD02
F9FCF7FF
0EF9FEFF
00FF0406
04000809
09F9F707
04210DFE
FD01FEFA
F8DFFAF4
1B0A04F9
0E0A0006
07F5F0FA
0BFDE6FA
F50915FE
FE01FB05
0C0A1A14
FAFE14F3
F4FB0412
05F1FBDF
01ECDC02
F4F5FFFE
FFFF0205
EA021320
11201212
1C0E0B04
06F20F0D
FFF8F80B
FDFE0300
02030003
0002FEF8
FEF7F525
20200BF6
F700F904
04FDFEFD
FDFDFEFE
01FE0203
FD010101
FEFD0300
FF050C06
010003FF
FF020501
FDFE00FF
FE00FDFE
010301FE
0201FDFD
00010101
FEFFFFFE
0200FEFD
0304FF01
000103FF
FD03FE00
FBFB01FE
030205FA
F90002FF
04060502
0102FF00
00FE01FC
02FE0000
070CFFFC
F6FC01F2
EBE9FD0F
11121104
03020103
030203FF
FF0901FD
000104FE
F9F8F8E7
EDEEF102
0A040B17
1A120B02
FF02FE03
010000FB
0200FEF6
F3F3F4EE
E4E1EAFD
FE051211
1D121419
FFFF02FC
0708F8FB
04FBFFF3
E8E9F5EE
F8FF0A02
07090A10
180D0F19
FE03FF16
0302F3FB
0105FAF2
FD03E7E6
F9FC0C0A
0A0B0C0B
0D130411
02020119
060AF1F5
FFFDFDFA
FDFAE001
09060CFF
FCFE0604
0D211117
FF020104
00FFEAED
F3F1FAF7
F8DEF1FB
00090CFE
FFF8FCFA
FE111A07
01FE03FD
04ECF1F4
FAF9FCE9
E6DBE7F5
080CFCF4
F0E2EDF6
16FD1209
FDFE0003
FDF4F2F7
FA02F1F8
F3E9FE0A
100CF5F3
FBF0F907
170D0901
01FF0302
040EFBF7
F2F5F8FE
EC000016
08F9F7FA
F3F9020E
080703FE
FF010102
070C0002
FAF6F204
0C140FFA
F0F1EFFB
F8F70300
FF00FEFC
04FF02F4
EDFD0808
04FC020A
0600FCE9
EAE6F3FB
F5FD0000
F9FA01FC
0301FBEB
EEFA06FE
08FD0600
F1F1F9F9
FDF90101
0401F6F9
FBFB0301
FFFDFBEC
F8F70801
FC04F6F4
F60BF607
000A0B0A
0B040103
F0FBFDFF
04FFFFED
1502FD06
080701F2
F8FEF405
09080C22
160B05F7
EDF7FB04
03FDFDFC
17F1F50F
07FAF8F1
F9F6FB01
00031414
0E05F5FC
FEF7FD00
FBFDFCFE
07E60009
0A0402F7
F4FBF304
00F7070B
08F8FAFB
FAF8FDFF
FF07FD05
05F4FD07
FBFA0100
020502FF
F9FE0D0E
FAF8FFF4
FCF8FF02
FF06FF07
F80009FF
FF0C0A03
FE01F4F8
F906FFEE
02F8F9F2
F6EE0000
01FEFA16
F3FFFEFE
090B0C01
FBF1F5E9
F4EDFDF8
06F6FBEE
EAEEFD02
0103FC0C
FE0D0602
01100EFF
01FDF2EC
FBF6FBF5
FBFEFCF6
F90102FD
FF020102
0C201608
050D060A
03EFF3F2
F4F907FD
02FFFE00
01FEFD00
03FF0201
0214FDEE
F1F2F0EC
F0FAF8F4
FBFA0208
170900FF
01FD0201
01FFFEFF
FFEFF2F3
FFFEFFFA
FCF9FCF8
FD050706
0B0605FF
01FF02FD
00FE0003
FF03FEFA
FFFC0D0A
0200F9FC
FBFCFDFF
FD0100FC
00FF0002
FEFF0303
FFFE01FF
020301FD
FE0001FD
010003FD
FCFE00FE
FDFD0103
FEFD01FE
0302FDFE
FF0101FF
FE010001
000102FC
030101FF
02FEFD01
01FE0100
FF01FDFC
02000402
0106181F
10020201
00040000
010100FC
FD02FE10
0EFBFE0F
05FA01FB
0B06F3F1
F4F405F7
F8FF0102
FEFD0300
02FEFD11
0F06FCF1
E9FD0B00
F2120B07
FE0CFEF4
E7EAFAFA
EAF3EC02
FFFC0007
FC02F0EB
F202F6F1
06080A08
0A131304
F8050BFC
F8D9F20A
02FE020B
D9DBECF1
FAEFFBFA
0F010308
0905F9FD
F1F50504
09DDFE01
01FCFE02
E0F4FF00
F4F1FFF6
00010000
07020DF6
FC0202F2
F9E3F2FE
FEFCFC04
F20BFD04
F202F800
0C040200
FD03040E
F5FC03F9
04E0E105
FEFC000A
0CFA0E04
0600F50B
0AF60C03
EDFD050F
0B04FFFD
0FD3E2FB
0301FEF7
150C090D
01F0F9FB
FF070705
F8E9FF15
1213FA0A
0FEFE6FD
FD00FCEC
F80E05FE
F8F8F6FD
FCF30014
F7F8F7F1
080E0E1D
04F1EB00
00FE02EA
00FFF300
03FAF103
FEFC00FF
FAE3D1E7
04160F0C
0AFFF7F9
020405EF
10FC03FA
0EFEF7F4
F8FF05F6
F1DED9E2
F7FF050D
0CF0F8FC
0304FC03
1BF70202
020809F3
E9030B07
F6D4E0F6
FCF90200
FDEE0106
01020506
081EFDFF
1108ECF3
04000912
E0BAEFFE
030AF903
00DD080F
01050A09
0B14E900
1907F7F0
F2070E06
D6D8FF02
11110A04
06F10704
FEFE0806
FA05000C
FDF7EAFB
FC1802EA
C5F71208
180AFD08
010C1500
0205010B
0C05FE09
F903F505
FF00F8D2
DE0F07FF
FAFB100C
FC2C041A
0405FBE3
FBF7FEFC
070F04F3
EFE4DFED
071204F7
0B02150E
03331119
0603FAF0
00FF0506
02160C06
03F8FCF9
0713FBFC
0E040FE9
F31E1403
0200090F
0CFB00FD
07141006
10030C03
03FDF9FB
FB03FCED
F40D0A00
07FD1923
13030303
000B0F04
05FE0714
0801F4F6
07FBF5EF
FFFE0903
00FE170B
FB110207
1310FFFE
FF0A0B01
FE0810FE
01F601FC
EAF50E04
000202FA
05140DFA
FE000000
FDF3F8F8
131FFBE8
EEDAF2F9
EDF60E02
FF03F5F6
040D1203
0405F8FC
0A0005F8
F60210FA
F8F6F117
FF000301
0000FEFE
FEF2ECF7
0908F8EE
F70915F6
E0E4EDF8
0E060116
01010002
010103FF
FDF6F3F3
DEE5FC02
FCE6E6E9
E6E6E800
1103F3FD
02FF01FF
02030203
FCFBFDFC
FFFE00FC
FBF4F3F8
F4F7F7FE
FAF2F9F9
FFFE0101
FEFEFD01
FF000102
FE0300FC
02FF0302
00FF0201
FEFF0103
04FE0302
FF02FD00
0200FD02
FF0001FF
02FDFDFE
FDFEFFFF
FEFEFF03
FDFDFD01
03FD0202
02FDFD01
FDFF0303
FE030302
FF020203
01FC02FF
FE01FFFD
02FEFEFE
000002FF
00000400
020203FE
04010301
03FFFDFD
00FD00FF
FC0300FE
FEFE0201
FC030102
02FD00FE
FFFEFEFE
FE000100
FD0303FF
01000000
FEFF00FD
FDFE0200
FEFEFEFF
FEFF01FF
FF00FE02
0103FF03
04010001
FDFE02FC
00FEFD01
FF0003FC
0100FE00
0100FE01
FF0200FC
02FFFEFD
0201FD01
020103FE
FEFEFC01
00FF0002
02FCFD00
FD0200FD
FE00FD00
FEFF0202
02FCFE01
010001FE
FFFE00FF
00FEFE01
00FF0301
020000FC
FEFF0202
FCFDFCFF
00FF00FC
FE0103FD
01FC0301
0002FDFF
FF02FFFD
FC00FFFE
FE0002FC
01020301
00FFFE02
FE030003
0202FCFE
FD010103
03010200
FB00FFFE
FD0003FF
FDFEFE01
0102FDFD
FC000003
FD030000
000200FD
FCFCFDFE
01FE02FD
00000100
FE01FF01
020301FF
FEFFFEFD
FC0200FD
01FFFEFC
0101FDFC
03000000
FF000300
0002FD00
03030000
FC0303FF
FF00FB00
0001FDFE
FDFE0102
01FEFBFC
FCFF00FD
02FF0100
FDFDFF03
FFFCFDFF
FEFE02FF
0101FDFD
01FF00FF
FE0202FE
FE03FE02
0001FC02
FD00FCFC
00FEFDFD
01FDFDFC
00FD0201
01FDFFFF
01000103
01030203
FE00FF00
020101FF
FDFDFCFE
FEFCFD04
0100FEFE
03FD0203
FEFDFF00
FEFFFF00
FEFDFFFE
FF02FD00
03FC0001
0001FD01
03FEFE01
FE00FCFF
FC01FE00
01020100
0003FC01
FEFE0205
06020102
010103FE
FD01FC01
01FDFEFE
FDFF02FB
00FDFD02
03FE00FF
02FF00FD
00FFFF02
FDFF0201
000000FE
0000FC01
FE0100FF
0302FD00
00FE02FE
FD0202FF
02FF0000
FDFF0302
FEFCFDFC
01FFFE03
FDFDFE00
03000100
0101FFFF
FF00FE02
0102FDFF
FCFE0002
01FDFEFE
0103FD00
0300FD00
FDFF0003
FFFC02FF
FC020000
FFFFFEFC
01FDFE01
FCFC01FF
FD020000
00010401
FE0202FD
01010002
FE010201
FEFC0300
0202FE03
040003FD
FE010403
0301FFFE
010002FE
FD02FDFF
000100FF
01FDFE00
03FFFF01
000102FD
000003FE
FD03FD01
03FD0004
010201FF
FFFEFE00
FEFFFDFF
FD03FD02
FDFFFFFE
FF000201
0001FEFE
FF0102FE
030202FD
FCFD0201
0101FD01
FF01FE02
08FDF3FA
FBFCE2E4
E2FBF9F4
F3F6FFFC
0102FD03
00FF0202
FFFE050D
181E1810
0C020605
09FAF8FA
08ECECF4
FD00FE03
FE00FFFC
000D1AED
F90A1B11
160D0605
111A0F08
06F3E6E8
E7FFFF01
02030300
000AFEF3
0B0D1410
0A090C0D
06041217
1008F8D8
E8F40500
00FF0A06
070302F3
FEF8F4E9
F3F4F0F8
F5F50E21
14251504
00FE04FB
0203FDF7
10130A07
02EEEEEC
EAECE3EE
F6EC0210
171811F5
07F601FE
01E9F207
0C04070B
0FFCF2F6
FAF3EBE5
F0E7F709
190FFF03
02E1FC00
FDECF20D
FBFF00FF
F5F7FDFF
FF030B08
ECD8F005
0E1203EC
FCE1F700
FEF0EC15
0017FAF8
F3FEFFFE
F50A0C0C
DBE20913
0905F6DF
E3F3FEFF
03EDFB1C
FB070406
F7F302FE
FDFE04FB
F3050B0D
05FDF6E0
F40AFFFE
00FEF50B
FDFEFAF8
00020B0B
03F6FA07
FF08FF0A
FBF6E9E4
022800FE
00FFF208
F2FE01F5
03090500
1802010E
08FEF8FD
F1EBDEF5
10130B02
00FDF7FD
F5FBFFF4
FD0904FA
F7E5020A
F8FF0A06
E4D5E406
10120806
0303F3F9
03F4F2FA
FFE4EC02
FFFA0F07
010306FB
F0E6F010
04000B06
02FF080B
1507EFF8
F9DED5F0
F6F8FCFA
FFFFFFFA
FE040E1B
1810130D
FD050E00
0604FAFE
FBEDE3F3
FAF1F7FA
F3050914
0B19171A
15202412
01041206
060CF3F9
02F8F90A
0301FC00
050A1A24
17160F04
01EB0F2A
00000903
080F05F0
FBFDFF14
1502F900
FF0002F9
030A0E0A
0D041D1B
FF03EE14
110F01EB
FAFD080A
FB01090C
03EEF6F9
F0030BFD
01012800
03FDF70E
0D06F8F1
F5F0FB0D
09050916
0CECECF0
FB06FFFD
FDEC0C01
00FE10F8
F80CFDFB
F7F6FE02
0AF5FF0E
02F2FBFE
FE010108
F8E90504
010116F8
E2FDFBF6
FDFAF1FD
FAE7F1F6
F0EF0700
0906080A
FA0102FE
0300FF06
F400F9F8
09000900
F5FFF1DF
DDDFFF11
191011FA
FE0C04FF
FE020100
ECE2EFE4
F008FFFD
07EEE2F1
EBDCF808
0E101307
010402FD
00FEFB04
03F7E9FC
FE0AF7D7
E2D5D1F3
FDF1EADF
F3010416
1202FE02
03FFFFFF
01EEF1FA
EDE4F6EF
DBF1EBF0
FFF0F2F7
E9E9E900
01FFFEFE
FDFFFE02
00000001
01FFFBF9
FD020201
FDFD04FB
090603FC
04030000
FDFD0100
03FF0200
FD01FE02
F7FA0801
03000203
FF020401
FEFF0002
FFFD00FD
FF01F7F8
F2F4F6F3
F3050101
060CFCFD
F4ECF5F9
FEFD00FD
0300FC01
FD00FAF6
F7042234
432B1921
21131F16
FDF8F0F9
FE010203
0204FD02
01020CFD
FDF2E5DC
F8031B17
1303DEF3
FBF2F8F4
0602F703
FD02FDF3
1137291B
2011040C
FBEBFDFA
050102FE
0905EAE4
EBF5F9F8
00FEFF12
0016282D
2F230E13
0D02FBF0
03ED04F3
F0EBEAF2
EA0BFFF6
0002FDF1
08251C18
FB0F0BFA
FBFAF7F5
0BFEF707
F8EFF7F9
EFFD0E0E
FD03FD0A
F40308FA
F517FB03
FF0004FB
0819F80C
1C00FFF0
03F10810
0106001A
F7F9FE05
10200E0D
FDF60A05
FE060A04
01F1F700
02C5F3FC
FF070B16
F6F3F8F3
170DF5F9
04F00009
FF0500FE
01E509F1
D1E8122A
FF03F1FD
E5F7E8E8
EEFAFAE3
E1F1F604
0701F9FD
EEFBF6F0
01101027
03FEF100
0DF5E2E9
F2EBE0DE
E2EA0518
05F5ECF9
FD0BF0F6
060BD303
02FEF605
02E8CADB
D3C6D8D3
F801010F
01F1040B
F9FE05E3
FD19EA05
F7010904
05E6C6DA
E7F0F8F4
0F080804
00F20FFC
E2FA010F
0F26FC18
000001FC
FAE3F80A
FEFC0A08
100F0B03
0306090F
010FFD12
1C0A1113
FEFF04F9
F3041D1B
00140007
0809040A
F81405FB
010F0511
0EE715FD
FE0306F6
F800130C
111B100F
0A07FF0B
0F13040D
130E0B14
0CF50B0D
FE0208E5
F5F817FB
F5090F04
06000A06
FFE8F0F1
07FDF805
16E6CD1D
03060702
FEF0F7FA
F8ECFCFC
FC01FAF5
FAFDF9F2
0002FC16
1A01C622
0703060C
14ECE4F3
FBEFE9F4
010B01F7
FA00EFF2
E6EDF71A
0B1D320B
00FF0220
1EDEE70B
06F80505
13FDFEFD
F7F0DCF4
F3EB0109
EBF61402
0402022C
ECF1FBFB
FEF51005
140402E6
EDDDE8F4
F00EFDE1
F5FE1EFE
0604FCF7
D3C8EFED
EDEB0FF7
EBFC05E5
00E7D8D0
F107FAE5
EFF411FF
FF03FBF3
D6EDF71B
F501050A
FD06FEF4
00E1F1CE
ECF0FBE8
09061803
FF000DFC
E7E2E8E3
F0F0EF07
F4040B0A
FCEAE6E7
DFBFE7DE
0505FF01
FEFEFE05
12111305
14FBF1FC
F2F90A11
07E5F2E9
E2DCE2FD
03010102
FF02FEFC
E9EEFCFF
230708EF
0D041919
1A111D03
FDFC0103
FDFF0302
FD01FD02
03010006
040D091C
25160D13
0EFFFDFD
FE020202
FF00FDFD
01FFFE03
01000303
01020300
080E01FF
03FE0100
FFFF0300
FDFEFDFD
02020303
00040A0B
121801FD
131A211C
0A001211
110F0907
02030102
01FE0102
0E13070C
0807FF1A
03131827
1E0C0406
0CFF0800
F8FB0303
0200050C
090D1418
1202FF0D
06263B13
14FA09F7
F6EC01FD
F3F8FD03
FF02FD0F
0CF601FC
ECF3FA01
F9FE0502
050DFD05
ECD0DEFC
FBF70401
02020303
3C1E180E
050F0506
03F6FB05
ECF1FDE2
D4DFE7D0
06000103
00FDF9EB
0C03F003
FE00F91F
00FB01F0
F7E1D8E1
E0C3C4C5
DBF902F8
0305F4D8
0BF7040B
F3020308
010AFEFB
E9E8E5CB
B6BDB9B9
D1E4EFFB
0300F9E8
12F70911
0C001406
0402EDE6
C1E5ECFA
D3D9EBDB
DEDEF3F9
000BFFF8
16FF0A24
020108FD
FAF4EEE4
E1FDFAF3
FDF4E8F9
01D6EEFF
020704FF
000C1509
02F900F0
F200FBEE
FF00F6F4
000EF200
E8D7E3F1
FC02220B
0E1A0700
F2F8F902
0E0A0F04
10101007
06010402
F3E6D7FC
04FE1308
130E0200
05FEE7F7
FCFA08FD
201F0A03
09010914
09FCEC08
FC021007
09060EFF
F601EAFD
EFFAFD00
18050612
F8140C17
1303F1FA
03FF140C
FEFF140B
03020108
EDFE0801
06EDF9F7
0D171E0E
ED08E901
FEFDFE07
EB021001
05F7FB08
FC0C14F2
F102FF04
111C0BF1
0111ECFE
FFFC0104
F70A0CF4
0005F607
F5060BF6
F609110B
08150F05
FD1AEFF0
0002F7F2
F200FFF9
F7F7020C
0608F6F5
FCFFFF00
010802EE
F211EFEB
020207DD
EFE8F70E
00F3FFF9
FE090407
070B0F09
01070BF4
EC1DCFF4
FEFD0CE3
FADDF402
0DF80007
10131712
100600F9
FFF6FCF0
FB0EDD03
010300E4
F0E2FAF5
F8FD0C04
06011416
090EFAEA
03EEF2E1
E608F603
FDFCF8F1
0902060E
02F503EB
F206FF0D
F5F9F6F3
F8EAEFE7
E7ED0002
0303FFF7
1E02F400
FAFD0AEF
E606F410
F1F8F8EA
04E206F7
F3ED06FE
0004FBFA
1D1A18F1
E5E3FCE1
CACBDF00
F3F8F9EF
14E9060E
16FDFEFE
02FE0600
2C2C1BFE
02FAF7FA
FBF0F3FF
0703FE03
0506FF21
1BF601FD
01FF0004
01FE1419
1FFDECFC
02E30F06
0E1A1112
10010E03
0D0902FE
030302FF
03020209
06FDF1EA
F7F81923
1113261E
26141316
FE01FD01
FF0300FD
FF000003
0B00FDFC
03020407
12140305
02040404
020002FF
000202FD
0201FEFD
FDFE03FF
02FDFFFE
010203FD
FE030401
010000FD
FD00FFFE
03040403
040302FE
0502FD01
01000201
FE000200
010100FC
FDFF02FF
000103FC
FDDCD8E8
E9E7EFF6
FD12190C
0DFF0402
0101FF02
020201FF
0B0105D9
DDF3ECFD
00FBF7F5
ED0DF5F7
06FBF5F2
E901FFFC
FD02FA0D
0DF7F4F0
12060B05
FBFEFD0A
02FE07F2
F4100F22
1F441B02
FEFFFAF5
271A1400
0B0A0D08
F905F9EF
0D0205F4
1404030A
171AFFF2
00050EFF
14030F1A
040806FF
0A140301
0006FB02
0AFB1406
150D1021
FE1600E6
F40C0BFD
05FD0400
040803FC
02F90605
06090501
0B090523
02FFED00
FD140D05
FD02FDFD
00020310
0D0B020A
02F40309
0D07F013
01FE080D
14F80B08
F706F9F8
FC09F6FA
FC080605
00FD0502
0416F104
FD030E25
FFFF03FF
07040906
08FDF4ED
F1FAF2FB
F80DF6F8
FCFB0503
0100F501
FAF8F2F7
06FCFEFB
000601F1
FFFBFDF5
01040817
030110FC
00FEECF2
01EDF6FB
FEF802FB
FF0D0603
04FA05E9
0CFD0516
FBF703FA
02F6F6F9
020C0D11
02020A06
0D0C03FE
FEF903F4
FDF4ED08
FF08F8FB
0AF8EFDF
12FC2019
070E0A0A
0D070606
05FA03F9
FAF8EB06
E1E6FAFB
0606F7E4
FD100F0B
09120F0A
0D03F9F0
FCF5FBF9
0805EE0C
E0D806FE
020112F1
DED6D5E6
ED061614
1C15FEFB
EEFB01F1
FA07060C
EBE0FAFC
FF041CFE
DACDAFE3
CCC5EFF0
F704FA09
F9FD0EF5
060CF3F6
E1E402FC
100723FD
07D8C9C8
AE939CCB
C9D5DEF5
0504FAFD
0806061A
CEE107FA
01091EF1
10EFEDD1
D4DABDBE
D4DDE1FE
02010B03
06FB1C0D
DBEA09FF
FF010CE4
0CF001FD
181301F8
FDFCFD04
F4040BFF
09021D00
F1F70703
030315F7
1D081114
0A051B14
16110805
010C0303
FA04F0EA
E0F407FF
FE030413
160F0719
0C0A161B
09040104
F40300EF
130AEE01
EDE9F8FE
02000821
2E080F0E
12051314
02FC07FB
F2FAFBFF
12E7FCEF
07E6F5FF
FFFEEA20
1F150B11
110C1806
0AFD1312
EE0300EA
FC0B1D0A
11E6FAFE
FDFE05FE
F11F0814
070C0CFE
090CF8FE
E6E6F90B
0B081304
0C050100
FC01FD01
05231C04
D8EDFA00
F107160F
1E0AFE0B
2312060D
FF01FE00
FEFF0102
02FD00FE
FF001323
19292EFA
05150BFD
FDFEF5FD
02FD0302
FF01FE02
FDFDFCFF
FE02FE00
0002FFFD
FD000200
0302FF00
0002FEFD
FEFFFF02
FD00FEFD
00FEFF00
FDFD0403
00FFFFFC
FCFD0101
00FE0100
03FF01FE
00FE0200
FF00FD01
02020000
F4F6F801
03FB00FE
010003FF
0001FE04
030201FB
FC010405
0202F1EF
EDF1F6EE
02FAFAEE
F3FDFAFF
0302FEFF
0300F9FC
FC060204
FFFCFCFF
05000A05
06050AF4
EFF0EFF2
FF0001FF
FDF8FCFB
FF0A0509
0C08F5F3
F4ECFEFF
03100D07
02FCF2EE
0102FDFC
0200FD07
10030000
0306F2EA
F60203FF
07080603
F7DEF802
FF05FEFF
F901EFFF
0C0001FF
FAFEF7EA
00FCFD09
05090909
F9FFF001
FE03FEFC
F9F0EE02
020AF901
FDF7E5F7
F8080705
0404FFFA
08140700
00FF01FB
00FCF500
FBFBFB05
FDF2F6FF
07030809
00030202
1323F9FE
01FFFFFF
FFFAF7F2
ECFB05FF
FEF0F00D
0C0CFF04
F8F6F6FC
0516FE01
01FF0105
FBFAFBFE
F6F800F6
0DFF081A
09FA0201
F506FDF3
F1FBFAFD
FDFF0704
FEFCF8FC
F0F308E7
0C090B05
05FC01FF
FBFAF1E9
F3F60106
FD010503
FDFD00FF
F2F4FAF4
0205FE06
0701FEFE
FFEBF2FA
02FD09FF
02000201
00EBF1F6
E9EA06FD
F1020E08
09F7E8E1
E9FF04FD
010303FF
FD03FD00
03F5EEFA
EFFAFFFA
0B0D0903
FBEDE9E9
F1F80102
FAFB0102
FDFEFD02
F5FB07F9
FB08F809
0D09FDFB
FDFBFAFB
F7F5F001
FA0A05FF
02FF02FE
E9EF0507
06FA050E
07FAF9F4
06FFFBFC
F5ECF100
FF01F902
FD0203FC
EAE10304
01030C0B
F2E5F1ED
FA00F8F0
F0FB0302
0609F905
0001FFF4
EBF20205
05100CFB
E7DEE3EF
F3F6FCE7
F1F7F90C
0C09FFFD
0200FDF3
08010106
0F0AFEEF
E2DBEDF4
02F5F3F1
00040602
010300FD
0100FEFD
FD05000A
0F04FCF3
F0F1F1F8
FCF7F609
0404FEF3
020800FD
0101FF04
F4090C08
1209FAFF
FAF6F002
00FE0608
070CF6F2
F704FFFD
FD03FE0A
EFFA0410
0F0D0A0B
F2F5FCFC
FDF8F502
0C09FDEB
EE02FFFF
FEFEFF00
F101000A
05111905
F7F6F4EF
F6FDFCFC
020B00E8
ECFD02FE
01FFFEFB
F6FDF3FA
05071817
FEFD08FF
FCFEF8F2
F6FFEAEE
07FDFDFD
FE02FD02
F7F5F206
040C1716
02FCFBFC
FAFAFBFA
FD01FEFF
FDFDFEFD
01FE00FF
FF0300FE
0303FD00
FEFF01FF
02FDFCFE
020101FD
02020301
0002FF01
FE01FFFE
04FD03FD
0000FDFE
02FE0401
FFFD01FF
FFFEFEFE
03020302
FD0203FD
00030002
FF01FAF9
FCFDFF01
03FEFFFF
030100FC
0303FFF8
FCFCFEFD
05F6F9FC
FC0A0B0D
F4EBE7F9
F6F0F501
FC00FEFF
FE0301F8
FA0404ED
FC02FEEE
EBFDF4FE
12151B10
10F8F5FD
FE020001
FE0301FE
01F6F6F2
F4F4F1E8
E4FCE4DF
FCF7EDEF
05EBFDEA
FE05FDF7
FD02FBF9
F3EBE403
190EE6E3
F1EEF9EB
F1EBFA00
0CE6E5E1
EA0303F0
FE00FF00
F9E4DFF6
0C0AF101
08070408
0402EBFB
01071109
01EF0CF7
FD1A0401
F1F3FCE1
03FEF6FF
0806F5F7
FF06FDF9
00F90A15
0B070601
031A0707
02F7F3F9
F4FBFAFE
0B07FB00
F4ECFCFF
00000402
0921FA02
000E0505
F7F0F4FF
04F7F80B
07060CFF
0A05000D
05FCF601
0D13D9FD
000B0C00
F0F2FDFB
F3FB0503
F801EFEB
F5FF0A1B
09F2F8EF
010EE5FD
05020C01
00160DEA
F90B0CF9
FD0402FA
FB0D0609
F90106F7
0207F900
02FF1916
072AFFFF
FE070AEA
FF02FBFD
0B0AFCF7
09120707
EF04FBFE
02FE1402
0E1B0301
FBFFFEEA
FD1404FA
07FEFD05
0E010206
FA0F04FD
FFFFFF0B
070E0B08
FE0205F3
07F9FB07
F8FE1501
04FB0D09
021400FF
FD01FB06
091008FD
020001FC
080708F8
E70007FB
041A1E06
F9010600
00000306
020E07FA
09FDE2DE
050EFFF4
F5F4F104
040B0DF4
02F000FF
04FD08FD
0E04FDEB
07F9F8FA
03F9FEFF
EFE4F8F4
0A0EFDF5
0B0B0102
01FC0409
1605F0F9
FBF8F90E
0E05FA07
FFEB00FD
0A16FFEF
D9FEFB01
FDFC050D
0102FC09
02020F1E
0BEFE3E9
F4D5140F
0E190EEF
E4E9FF00
FDFCFC08
E40201F6
0D1D1909
FAF1E9E9
E1E91419
0E1405FA
05F90000
0201EEF1
F9FEFAFF
19141507
E8EDE9D3
D8F01820
1816120B
161704FF
0101FCDA
0E06160E
07FE06F1
F1EDD0CD
D5F80415
181B1910
0B160401
FEFDFAE0
0E15150F
0AF8F6FC
EECED1E1
F4EBE5FE
1A0FFA10
101CFFFD
FE0206F2
060E1009
0304F8FB
E0BAE6DF
F6E5DDF7
05FB021E
030BF803
FDFEFC0C
0B02E407
0BFCFBFF
DFCDE3E4
1304F9FE
FF010A12
F9F7FBFE
01010207
0E182A27
180D0FFD
F10B070E
EE0709EE
F8131610
0B0100FD
0301FDFE
03010503
09010406
05090B08
09090B09
070D0F08
01020102
FF000200
FE030004
02000301
01FBFD02
0003FE00
020100FE
FEFD02FF
010203FD
FEFCFDF8
FCFD01FC
02FDFFF3
F5F2FAFC
F7F8F6F2
02FFFEFD
02FF00EB
EFFEF5E7
E8F7F6F0
EBD7DC00
F8F2FF02
03F3F4F1
FBFBFD03
0203FDED
EB02F0DD
EDE5DBCD
C0D7E1DF
EBCFF7F8
F2F2F8F4
EBF5F501
000200F1
FC12F4D4
F0D1CCD7
E9D6CBD4
E1E00114
071B1D1A
F0E4E5F0
FD03FCF8
E7F8FBE6
F8F7EE0A
FEF8F2FB
E1F0E6E7
EFFD0A0C
1001EE03
01F4F013
010602FA
0A09F20C
0E0600FB
FB09FEF5
EC0B090A
0BFAF9E1
03070711
F6FE00FA
FAFBFBF9
FC0804FB
F5F9F603
FBF0090D
020F0CDD
0412150C
170106FB
FDFC0404
FBFAF804
FAEF08F4
F0F4FD13
0F2912E0
000F19F0
F40F0D06
F8F9040B
09F6F8F6
FB030007
0F0D0607
0AEFFA18
FF0B0AF7
F420140A
00040316
11051000
00020506
160C0802
0DFADD15
03FFF100
00220F15
1A0D0A0F
14F4FB07
0B0C00FD
0E1102FA
04EACBF1
0003100B
0D0A0A00
10FD0715
07000717
16030EFF
1F0E1310
EF0CEBF0
FA070DF6
100F1018
04FF110C
0902FE16
0D06FC01
2118150C
0B04F5F1
FD0914FA
0514131A
0E020808
07FC050C
120D090C
24120F0B
FCF3ECFF
010309F4
19FCF9FC
FE111109
04F90F1E
11150E05
111C1B00
ECF1F006
0500F8EA
0D07FF05
04FD0906
060A0A0B
110FFFF7
03110AF0
E8EAEEF0
01FCFDF2
FAEBEDED
FAF005F5
F2FFFC01
0BFDFEEF
F8110CF8
DF2E38E2
FC0300F2
06E1D6DC
DCD3D0E9
E2F5FBEF
FAF5FBF3
FCFAEED6
D73656F0
070A0FE2
09D8DFE6
D9D5D4E5
E5EFF4FC
E9F4FBDF
F0E7CDD3
C80AF704
03050CC4
F2EEDCF8
FEFFE5FC
03FF07F4
F0E8F1F1
ECE7EBFC
E3FEF901
FFFF03C8
F3EFCDFA
FE100206
02E8F3F7
EDEAF903
F4E8E1FA
F2FFF303
0301F9CA
DBC1D3F0
0E0E0813
0101F7FA
00F8E6EC
E9EEE7EF
EC060302
00FEF4D2
C0D4D7E4
14020E0E
0801FAF3
FEE2E3ED
FB14EFEA
07270502
0103F7F9
E9F2F3F2
00EEF8F2
EAFCE8FB
FAE6F6FB
1F13F9E5
DD15FE03
01000101
08EFECEA
F7FAF0FF
FC0BFD00
FBF401E9
02FEFBEF
DD03FBFD
01FF0303
10040400
F313F4E9
0B0B0CF5
F1F9E5DF
F504F0E2
FFFFFE03
FD000103
0002FAFD
04F2FEF5
0DF7F2F0
070203FD
FD050504
FEFE0300
FE030302
00FD03FD
01FDFEFC
FEFDFE02
01FF02FE
FDFD02FF
02FDFD00
FF02FDFC
FD0103FF
FE00F5F5
F8FD01FC
FBFFFEFD
FCFF02FF
02FDFE00
FD02FE03
FF01FE02
04F7120D
05DFDBDF
E3E8E6F3
F6F5F801
00FEFF01
FDFEFFFE
00FCFEF0
E9F6F5D3
00070AFF
F0FE1403
FAEAEAD5
F9FA0101
03FFFD03
011608DC
DCD2DA07
EAEF04FC
0404FC15
180408EE
F8E3EBE8
02FD0209
1902FE19
0C080A08
0A1A0DFD
ECEF05FF
F8140DFD
F8DBE6EB
FD020605
0B050D09
0E011101
11150BF8
FBFCFFFE
F40C0F04
00F0F1F2
020705F9
00F9050C
FEF2FFEE
06F6FE01
F8F9FDFF
030A0212
FF0502F6
030AF7FB
F7E8E7F8
E6DED9DD
E2EDEAEF
E9FFFEFD
0809F50A
FBF1FD0C
020FF7EE
F1EDF6DA
C2CECBBC
C3D0D4E6
FD0809F9
F5F401F7
E4EB1200
FE0A02FA
FC00F3E8
DBF5EFD1
E0E5F007
13080BFC
070CFFEE
01140E02
0306FB15
1DFEEF0C
02FDFBFB
00FEFA17
0B111501
080FF4F4
F8E5F9FC
FE04FF20
1902F91D
1004061C
13081217
0E0D1104
FD0CFE12
F8D60102
00FF0A2A
1C041216
05EC160B
F9050B06
03151404
F40AFAE1
EFFC06FF
00001620
17100BF6
E1F7FD06
EFFCF8FA
0501F5F9
F4F2F0DC
EAF9FE03
020011F0
F7140D02
01F9F6FB
FEF8EC00
F6EC0201
02EEF6FF
FAF60003
0003FFE9
041501FC
FF04F4F7
FCF1FE0D
F4F50D0C
08F5EBE9
F1FD010A
000A00F9
FF08FEED
FCF8F70A
00F609FB
F4F80B07
E7E3F0D6
F2FEFB07
02010B0D
F1FCDEFA
10FDF712
FCFD0A0B
F507FDE5
D3DEE9D6
E6FEFEFD
03041422
EF00FA18
010DFD00
FF04F604
120F02E7
CDD7D5C9
F509FCFD
03001D1E
05000CFE
FFFC0004
06FC0500
FB04ECDE
D3E2DFCE
EFFF0200
FF032416
FA090AED
FA0009FD
F3F4FDEF
F8FCF5CF
D6DDF0C9
EE03FD00
01FD1D0C
F30107F8
FB0C02EE
ECECFC0D
FFF2E9DA
D2F1F4CD
EFFCFD02
040008FF
E8F2FC0D
070A0B08
FEEAEEFE
EEF4F4DF
E7F904FF
03FD0200
01FF0912
E6EF130C
120F0D08
FBF7FBFE
E6F3EBDC
EA020A02
FE0002FD
0301FDFC
D7D9ECEA
0D111817
131A0902
EBEDF5F8
020B0AFC
FD03FEFF
FDFFFDFF
F30AFBE6
0E020905
0C140811
120B0204
02121003
FEFFFD01
FDFCFD00
01000003
06020C0A
02020A08
08070304
020000FE
030203FD
FCFEFD02
02FF02FD
03010201
FCFFFEFF
FEFD0000
000003FF
000203FE
FEFCFE02
020103FE
FE000600
FEFD00FF
01FCFEFD
FE03FF01
00FE03FF
FFFF0304
0500FAF7
FFF4FFFC
F6F702FF
030301FB
FE0B0806
00FD0303
FDFE00FE
0204F5F0
EEF904F4
F6EDEBE0
E8F8FEF5
F0F7FAF7
FF01FD02
FEFF000A
FB050B0B
F3FEF1F7
F3F2E3FB
FFFE0704
060C120D
060DFC03
FF0203F8
03291F08
00F8EBF1
EEF3F3F3
F9010801
FC0F0706
1A1810FE
030005F4
050F1D1A
0D000AFA
FC010A0C
0C0D0701
F30914F1
F9141003
02FDFEE8
E3F7150C
0A0E00FA
000B08FD
F8080E05
F6F1070A
FC070A04
00FEFDED
EB020D04
1C05F3FE
0E151004
FBF8F708
02F2F60F
0F04FE01
FF0300EC
01FA0514
210BFC03
0405FC01
FCF1F9FE
02F6F1E9
0E242100
02070C10
0915050B
0E18FDED
EBFB00F1
FEF206FF
FAFC08F7
081C0A01
00030A0B
110F0A07
110FF0DD
F1F0FF02
030BFAFA
03060F02
F704E3FD
FDFE0520
1FFC0D04
0CFBF1E6
FA060403
0806040D
03090A15
02FB04FC
03FC051E
1F030815
08FDF1ED
F7FEFDFA
05070304
01031005
F9070400
03FDEC0A
1104150E
08F8F0F6
F2EFE9EC
F3F807EA
00FD06F6
F6FA0001
04FFE703
0F09180A
060B01FD
FAF1F2FA
FCFEF2FB
070E0606
03060300
0200F703
050A1404
080F05FD
F9F8F8FB
F9F1F7F8
03070902
0F0601F6
FDFE0515
06FB0606
05021410
0EF8F7F7
F6F2030A
08090708
170B01E3
0402011A
04E60E05
EDFD06FC
F1EAE3E6
E7EBFE0B
0E0B00FD
1612DFE5
02FE0F16
05F80400
F2F903F2
F3F4EEEF
EBF00307
0E0705F5
171BF800
FFFF0B1A
0F0409F7
031300F4
F1FAF3ED
F0FC0400
0305150B
0528F502
01FD0511
10F009FE
FDFC04F4
FDF8F9F7
F9EF0606
03020609
0C2310FF
03FFFC02
00FCE7FA
1012FDF3
F50A0A01
03030703
03FB1417
F92A1001
0304FDF1
F80AF9F2
070DFAF5
FC0201F8
F5FB050E
0E0C160C
051E0F03
03FDFC07
0B0B04F6
F603FFFF
F9FBF7FD
EFFE1721
2E0F110F
01F2FFFF
0001FDFF
F1FA0A02
09FDF306
14220C17
10EB0425
1BF0FBFE
FAFD0203
040203FD
FBFBF9F3
1C1D0900
0107130D
2001FAEF
11160F13
0E01FFFE
FF000100
0005FF04
FD02FDFF
08F7EFEF
05FC1009
070807FA
FC03FD02
0202FF00
FD02FE03
FDFEFE03
060501FF
FE0202FD
0001FD02
030201FF
FFFD01FE
FDFCFEFA
F6F6F700
0004F8EC
E2E3FC01
F9FA0001
FFFF01FE
FF03FE01
0300F9EC
F3EB030B
0BF7E7F5
EBDDD405
01F3F9FD
F801FD03
03030000
02F7E7D5
D8DEF5F8
E9DAD8C1
D5F007FF
EEEDE8F5
F004FFFD
FF00F8F5
0D120C1E
12061008
0DFBF6F0
F50212FC
FD130F01
F50600FD
0101F9FD
F3F609F6
F50A2BF9
F6BBC9E1
00180F06
E1030319
FD04EE04
00FFF8F4
E60C260A
FA0BFBEC
EAB1B70A
10FF0805
12140007
EC06F702
02040502
F51E0D00
060DFB0D
F8B6D10D
010BFE0C
0605F4F1
E1F809FF
FE0F0E01
06100808
0916030B
DFC5E10A
0F1503FB
F1FFED04
EBFBF6FB
FE05030D
EC01FCF8
120B140A
FAC7E609
170305F8
F90C00F8
F511EC00
FE0A0805
F6F8EBF5
06081202
03D1E005
0B0D00F9
F3F3FCEF
0105DF00
010CEB12
F7060CF4
160B0B04
03E4F404
14FD05F3
F9F3F8EF
E5E602FD
0504FD0F
F4F4FEF4
00FD0C17
FEFCFF03
150506F7
FC061305
1A11FDFC
0303130B
F4FD04FA
FA090B02
F1EFFAFD
02071208
F8FF1C08
0409EBFC
02020E03
F311FF06
03070401
00F6FB00
0A03FC0E
F31109FA
EBF7F602
01020CFD
07FA050A
03FDF603
FF070606
0003F90C
0F140EEB
E5E7FF02
05051C02
FCFA190C
F4F2F900
01FA0303
01080816
1407F1E6
03060AFD
FF032807
1309110C
F0060105
FE030A07
FEF80AEE
F6FEF9F1
F81113FE
0006290C
04000105
F104FC09
FF11FF00
F7F404E2
F304F4F0
00D2FB00
0301F1F9
09EDF0F0
E401010C
FF07FBFB
F7F5FEEA
FEFEF4E7
07DFF900
00F8F8F4
EFEAF3F6
FEF0F7F1
F5F5F905
01060AF2
0EFEFB03
0FE2F802
0301F9F3
050709F3
00F703FF
FCF2FA00
100206ED
18000C0D
17E21103
0505F7DF
03090FF6
0706F1F9
010DFD01
05F6FCFA
0B0410FF
0AEE13FD
FD02FCF6
0EF3FB14
20F800FD
F50109FD
F9F70FF9
031801FD
FFFB1701
FF02FC0D
F7E9EDF8
1907FDFC
F60603F4
FE0E18FC
100F02F7
EFFB0203
02FEFA03
EBF8F7DC
04E60A05
07190F02
F20114EF
EAFBEEF4
03FDFF03
0102FFFF
FA0701E6
EEE3F5E6
DDD3D4EA
0204EFDD
CBDDF8FF
02FD0002
02FEFF03
010000F8
FA0102FA
09D9D3F3
FFF7F2F6
02070206
01020101
00FD0203
FD0303FF
01FFFE01
FF0302FD
FFFF01FF
01FF03FC
FD00FFFD
FF020002
02FEFEFE
01061516
1114241D
1A04FDFF
01FDFEFF
FEFEFEFF
FE010200
FDFB0100
07181F0F
F8002923
1403F4E9
F7F3F8FF
0204FE01
0103FDFD
05F8FD1D
15110401
290EF1F5
1100F401
07DEDCED
FC03FFFF
FE02FFFC
090BF6F7
F5E7EE0D
0C0B1015
EFE1D5EC
E1D1D5F1
FDFA0103
FF02051D
150C1300
DACDFC00
01000210
07FAF30A
D4A2CEED
F1F7F801
FDFE1413
FAFD0FFA
EAEFFEF9
030901FF
0D020BFF
E9C0C5E1
ECF3F6FE
01F4090B
F3FEFB01
FAF8F2FE
08FD0DFD
0E05F9DE
DDD7C1D5
F6FF08FC
03F2F4FF
FE05FBF4
0104F7FB
F0FC0E10
030BF6F2
F4E1CCE2
FADDEBF8
FDFD04F3
FA180C08
FEF8F4ED
F5011A1F
0DF800F5
DAE1E7F4
F9D1D701
FEFD13F8
F80DFF02
FCE802F2
10122523
1B05F0EA
D70102F8
F6E7ED00
FF00FDED
EFF9F2FE
F0ED0303
06061515
1610F6DB
E906FFFB
E9DAD212
FF01F300
F6D8F3FF
160B030B
130F09FB
0E08E8E3
F80AFAF5
010C060B
0CFCEE03
13E0E4ED
0406FB11
FBF1FAF6
1213EA01
040E0605
010C13FB
FB01F7FC
F8EFF003
0908F3E2
EBE5060C
0C00E901
F9000314
03062207
FBFF04FD
110D010B
FE0DF4FD
0A05010A
1204EA06
F1EDFD0A
FF070AFB
FD0500F7
140F140A
F602F302
F8F800F1
FBF0FEFC
E7E8FD11
0C142501
FD06FA0F
0C100A01
FA02FFF8
F60309F4
FDE6F2EC
E5E2FBFF
F320F015
02030A0E
12FF0200
FF0800EF
F2FD00F8
F8E600FB
16000600
FE19FE1F
0300E1F6
0BE8F203
F2F8ECFA
ED070F03
F9FC0202
12FEFAFA
F61C3112
0100DAF2
00ECFA1D
FD09F709
050C01FB
14090BFD
03EEF40B
09282003
FF01E205
0BEFFA10
0D1407FF
FFFFFA05
12FA0E05
09ECFF12
1E282000
FD030F27
23FDF306
1510FEF9
F7F4FD03
EBFE0D0A
0703091F
1D1B1AFD
FD010312
111EF7FF
0C1C1005
FCF1FC0D
0415EEFD
05F4E508
0D1529FD
02FE040B
01181011
1A1408F9
FFE7EAF4
F206F305
070FEF06
191A0C03
FEFF0208
10342810
E9E8E202
F0E5DDEC
CAEEF0D4
F8F60D13
FC00FE00
0001FD03
FB1E14EE
F2201609
02DD001F
F0E1E7E3
DAE3E3FF
0203FFFD
FD01FE00
05030101
FF02F5F2
F3D7DB24
23E9E8ED
FC0302FF
FEFC0000
FDFF0102
0300FEFD
FD01FF01
060B0A01
00010303
0300FE03
FD0302FE
FEFDFE02
FE020203
05F90D11
14111713
1E19FDF8
F6FD00FE
FD000302
02FD03F5
F70B0D09
13211600
EFE4090C
0A160508
05060202
180C0300
01FF07FB
FA0A000D
050C0F18
FBE5DEE2
05FCEFFE
E4EDE4D9
FF1C0BFD
FE020602
1705F6EE
FE09170B
03EAF9F4
FE070C0D
11F6F4EE
E9F1FB04
FFFF0A10
F0E902F7
02F60402
F3E5FEFF
FC0B2005
0B0601F7
EFF0FE09
02000C19
FDF4EFFE
0AFDF60D
00F50105
0C0A0EF5
F6FC00F0
CFECD9FA
04020D02
ECE6F704
0500FC0C
01F500FB
0C08F3F7
FAFBFEDE
DAE2DEFA
030408EF
E1DFEBF2
F0000DFE
F6F7F102
FCFBF9F7
0BF4F5F8
E3CBEEFE
03FE191A
FCEFE7F3
F90112FC
02F0F703
F6F403F3
01FFF4EF
DBD0EBFB
00FFEE0B
EA0617F4
F7F402FC
FDE4F104
0203FEF1
FDF9FEF0
EBDCDB00
0301DEF5
EC010E09
FDFEFCF9
EEFEF6E3
F907FB00
040215F7
EF00C8FE
0103EADD
DBF10100
04F808EF
E8FEF7E0
F302E2FF
0D091CF0
ED09F409
020011E0
E8FE1307
F504F9F7
050FF801
F0F7F6F9
02F71812
03140E1E
FFF5FFEC
18081907
FA03F4F9
0608FD0C
05F9F8F6
F602100A
111D2917
01FC101F
100D1101
FE040006
FA0C0317
0703F50A
F8F305FE
1B212410
FFFBFC0F
060D0903
F4090C0D
FBFE0C13
180F0304
FF120A02
05382516
01F801FF
FC1213FE
FF0A0307
FC061013
0EFFFEFE
FF1D15F8
0520E324
FEFE01F3
0A0C060A
0F0DFFFE
0800150F
18050B13
03190D07
281AE731
000E0CEE
0B03FF02
FF071105
05021621
25141F0E
00050614
000B3108
FE0B13FF
02FF010E
0A140C0F
01F5F4F9
161A260F
0915121F
FC0916FD
FD0907FA
F8FB0D04
F80706E5
EBEFE0D3
EC01041B
0B101007
FBFE1503
FAFF12EA
05121106
FC01FBF8
F8FDE9D1
D3ED0313
030DFBF0
EBE1F701
020106DF
01F6F1EC
EAF5F7EF
00EFECDF
C8E3EFED
FDFEF5EA
E5E4E6FC
0100FDE0
E8F4EDE3
F4F8F6EB
D4CACAC4
CCC2CDCF
E5EAE1CB
E81312FF
FFFEFE03
FEEDF6EC
DAB3C1D3
D4E8EBF6
D6E2D8BE
B8CBC4C5
E11513FD
FFFFFD03
FDFCFB01
E5DFDCDB
EEF7E7F8
F6E7DEEF
E9E6EEFC
01FD0004
FF00FD01
00FDFF03
05FFF9FD
F8FF00FC
0300FAFD
000201FF
FF000200
FDFF00FE
00FDFFFD
FEFD01FE
080801FD
0303FE02
FE02FD01
01030103
020102FD
05030304
0209F8FD
0B08F719
1B261014
1A10110C
0200FD01
FE030622
1E090519
FE00F905
F8ECE6F4
180D0008
0E141B0D
FC0400FC
03000023
1E141B14
000D2B05
D002F7F3
E4DBE806
20FC0124
11EDEEFE
03FF0306
F7F7FDF4
ECF4ECF4
F20AFCFD
04F6F714
0C080DFF
F3E3091A
01010903
2D1805F5
F7FCFC0B
FD120E16
F3FE0914
FBFB0012
15050910
FFFBFA15
25FFF3F5
F3EBFF0F
0506F7F5
FFEFF200
071F1005
10EDE4F5
00FAF0F3
11E6E2F5
ED0406FD
00FCFB0D
06F8FF02
FB080C06
04F3E0F9
040DEAF8
0AD50BFD
01070C04
070608FD
08FAF5EA
08FCEFF8
01D700F5
04FA03FF
1DEE0C09
EFFE0D15
03080D03
0605FBF9
0B03EE02
19DCF8FA
FEF51D0F
190306FC
FC100912
0412211D
142214FB
0AFF0120
10E1E7FD
01F90303
F6F8F413
030BFD0A
FC080A0C
05160900
0B0B0712
13C8F5FA
0005F504
F2EAFA14
FF0BFE09
F7FF01FC
FD1003F6
F60D131B
14CCD0ED
FB08FAFF
06F00BFF
FCFF0B12
08F1EAEC
F2FBF8F5
F9FF140A
FAEBCBE9
FC000EF9
E81810FA
F0011519
09E7DCF2
F5FD06FD
FD0E1008
ED00D2F2
F8FCF2DD
F713FE10
F2FF090D
FCDDD6F1
030005FE
000D1A0A
F9FBE7F3
0204F3D4
051005FE
04060F0B
E7DBE8FB
FBFDF9FB
FF0108F4
EFD6C30D
FD01E6F8
16200405
FF0102F5
EBE8FAF4
FA07FAFA
FDFC0609
00C5EE0B
06F6EFF0
0107FBFA
F8FEFAFE
F1E8F1F6
02FDF7EA
00F9F3FD
EEE0F4EE
031CFCFD
06101005
04FC00FF
FFF305F3
FA07F6FB
F2F6F4D8
07EBF7F5
FD1AEDDC
10050CFD
F7F10206
130400F2
DFFBF900
F7E9E8CE
FBE6FCFD
01F5D6D2
090D1005
02FE060E
12FBEBF8
F8FFFAFB
FF0601DC
FBDB2C04
01FDCFD0
FD0E1508
FB0A1106
1213050C
09150BEC
F2110AF9
E6FB1D00
01FF00F1
FB01070C
F8F802F8
FB070E0C
FA09FFE6
F0F7E2E2
CBD2F2FD
FDFE00FF
0E05E610
FDEAFDEC
04F902FD
03E2E2CC
CBD2DDDE
EEEAFF03
FF01FFF9
EC01FBF8
E6F2F800
02FF0DFD
1606E1EB
F1E6EEF3
0807FE02
FD0301FB
F7FBF1E9
EA09F6F2
F0F410FB
02F0F0FF
07F911F6
F3FBFF00
FE010201
FE00FDFC
FFF9F9EA
EF0F0D03
03FBF200
07060506
000201FD
FFFEFFFD
01FD0001
FF0001FD
02030504
01FF0301
00010302
00FD0302
030300FF
010104FF
F6F6FCFD
FF00F2E4
ECFCFEFF
FFFF0203
00FF0102
01030302
FAFC0700
FF0FF804
FFFAF3FF
07FEFAEE
EDFAFB01
FA01FFFF
0102FE01
FE0103E7
EB0FFD10
07FE060B
06F90DF9
FA040510
12FD01FD
03FE0002
E1F5120B
E2E70EF3
FA0AFCF9
00F608FF
110EFCFA
FD0909FE
01FD01F8
DBEEF8E4
E4F2FFF8
101E110E
0B0F0303
130C01FE
F4090901
0101FCF0
F8D2FCD7
F5F5F908
FEFA020B
0805FD12
FFF7F506
E7EB1101
FFF9FF09
F0CE05E6
F704F80E
0100EFFD
F8F6FD08
07FB0C0E
0C0F1610
0300FC08
FDF50B01
F902FE10
120DFDEE
00F1060C
01100A14
272E1F19
FFFFFF10
F1F2F7ED
E5F6E916
0E191EF2
F504FC04
040E0B0B
10361BF3
FDFD0214
FAE6E5E6
E3DDE805
15221AFE
FFF7F2F7
07060806
071617F1
FDFFFF1B
09F4ECE2
DBEAE0E0
080E0C08
0CFF04FD
01FD0211
131727F4
FFFDFB20
0BF0F0D4
BFCEDEF5
EC010110
0B0F06F2
FFFF0901
140804F8
F9FCFD05
F711EFE6
DFD0C8E2
F009120D
FEFBFA07
E8E7E4D1
EE01FD01
03FEFF0A
0E1F0FFD
DFDAE5EC
FE0B080E
F6F1F4F5
F4E7E4D9
F7F6FD01
0200FC11
1E1B1A1A
0EE8E8DF
ED0205FF
F8F7FCF5
F7FBEADC
E7F00003
FDF7F115
20122618
1D02F7F5
F5E5FEFD
F7F9FB04
0E04E8E0
E210FB06
FDF7F70F
FAF91818
1C09FAF8
EBEBF60A
080A040B
03FAD5DF
F71F0A0C
0001FBF6
FD081011
02080A0B
EBF00600
090A0504
FEF5ECF7
FA1B0207
FEFC06D9
FD0BF9F8
050A0D06
EDF6F3F1
01070905
0500FC0C
F6FAEFFE
FFFD05E5
10FBFCF7
05FD0404
FA01F9F6
FDFD0108
04010E06
F1E9F7FD
0002FAEE
06FA1108
0B02FB12
F80806F2
F6030DF4
00F101EE
EEF0F7FE
FCFD00FE
03EF1006
F9FA0316
F9020E01
0301F2ED
DCD5DAF1
FC01F501
01FEFC0C
FDE0ECF6
0309F7FD
F6F7FA02
FFFEE3DD
09F9FAFA
201AECFE
FE02FC11
F1DFECFC
011CFBDE
1101E9EC
EECEF4DD
D4F1FB07
04FDFC02
010201FB
F6041909
17F70006
07E8EEFB
F1E4E9FA
03030003
FEFE0201
FD030202
F8010410
110B060B
070C07F6
F7040100
020D0F0E
01FDFEFF
04020102
FD00FD00
00FCFC01
FD0300FD
00FE03FE
FD000101
FFFF0000
01000002
00FFFEFD
FDFE0302
02030204
FD030102
FD01FEFD
02FCFD02
FF0003FD
01FF0304
0102080C
03FF1013
1208FF03
090103FD
FD020003
01FF00FE
0305090B
F9FBF1EC
E2E1FD0C
0E091009
0A05030E
0203FF03
FF00FF03
050007FA
FA03EEF9
FD220611
00EEF5EE
F60A1518
020F0FFD
FE00050A
07020D02
0BECDCF4
E4E6E3FC
E9E704E6
EF020211
1B1919F1
FF030201
F2F9FAFA
031E08E5
FAEEFAF0
F8E7F7F8
F1F0FDF6
09190AF4
000612FB
1E17FDF7
FD04FCFC
FFF91312
0F0D0D06
0D0FFDF9
001015F8
031621FC
09ECFCFF
FBF10702
02050515
10050C09
0A04FCFB
140E1F02
FE040A03
03EF0503
03FC190D
0B091612
1703200F
090803ED
0C001A25
0203F317
07EA0100
06151009
FE130A1C
FE070E01
FE02F4F7
0E0A1C0F
0005F70B
FC080D0B
08040201
F8EADDE6
F6EBF7F9
05FAFCF9
FE1C2115
04020813
F6FC0F09
FCFDF4F8
F3E2DAF0
F0F7EE07
08F90A06
06222610
0408F71D
E6EEF3F6
E2F1EDEE
E4F0FD0A
0A020CFC
F41517EC
F7110909
FF0C040E
CEE0EEF6
F5F1F500
00FC0FFD
F40901F6
EC0D05E6
F41E0705
02110F0F
E0E3F6F0
EBFAF6FB
F3001203
0C06FF04
F9EFFBF4
000FFA01
FF05FFEF
0CF6FAE6
FEF5F509
FA0B1003
01F903F0
F9F706F6
09F1FAFC
050301FC
1CF6FDFF
05010205
0B1206FD
F901FAED
E8F7F5DB
E9EFF2F8
FE03F60F
FFFA0D1E
00FF0009
0009FE06
0BFEF7EB
FEF8E5E8
FD03E9F3
080304F1
FAFB0A12
FDEE0BFB
F2090A08
04F902F0
03F9E8F8
FD15F5F5
FC050DE7
F8FA040A
15FDFFEE
00070805
05100305
E4F0EFED
EF12FDFC
FC091501
DFFAEF02
07EAFFFE
0BF5030B
07130310
F1EAE3F6
E810F8FB
FD0B131E
08040508
F6F602FB
FCF2FFFB
FE060912
F4D3E106
0C00DD02
FE010006
111A1006
F3F900FF
FBF3FC02
00FE0B08
FDD7DE01
0FFED200
02FF00FA
12171000
FBFDF0F8
F7FCF202
0A05FDF2
FD060705
2813EE03
00FF1322
0E0AFAFA
F2EFEB0E
08F3F5FB
EEF4E5DB
09FFFDF9
F1F4FEFD
FC010104
E8F5E8EF
F10EFCF7
17000306
070D0D1B
01E5EA28
09F6FBFD
01030102
0DE7EBF7
F00EF6F2
EF17360E
2622392C
1C10050E
F1000001
FEFFFE00
01060C0C
08070301
0E0F1D12
080E120C
F5F6F3FF
0201FD03
02FF0102
FFFD0303
03020002
0C0CFC02
FF020000
FF020302
00000102
FF00FDFD
03020905
1213150A
152706F3
F403141A
21171109
FFFE0001
000107ED
F2120802
15150416
FBF6F509
0E312D20
0A171916
0204FFFF
00FF0AEF
EB1C1C0D
0D0A0D0B
EEF80103
01FEF10F
03111325
21FF05FE
00FDFD0A
FCF70E12
0DFE16FB
EC02FFF9
F8120F0A
FDFAFE1A
01111F1A
03FF0CFB
2202FB17
0DF903E6
EDE5F0FF
FDF1EFEC
12F1D7DF
EB021115
FFFE02E3
080AFF15
1604F2FD
FCEEF0F4
E9EED0DC
EBE2E0DF
F0F2FB10
FCEBF6D7
F5040A25
0EFC0608
F7EDF5F9
EE0AEAD9
ECFCF4DB
E7EEFB16
03F1FBCC
E506FF0E
F6F7E8F8
F8F2F5E1
ECF7D8DD
0A0FFFFF
F406FF18
02E9F0F0
E3FEFEFE
F1EAEA00
FCF2F7E0
F7EED704
1111F8FB
E2EFE9DE
01ECF006
DFEBF8FD
F7FEFFFB
F902F8FA
EAF8F808
FDFAE7FF
01E0F6E0
FE02C9E7
E6E8FFFC
050504FD
FF030602
FAF1FD08
F5FF0207
0CFD1C0B
0000CBE2
EBE60208
0DFA0116
0100090A
0002F0F7
FDF71302
1DF81C0A
FD01E9E5
C7E30B0A
0EF5110F
FF04FD11
09051319
19151605
0AF11108
03FEF4F1
C5F905FD
09F8F707
0006FE0A
0B0A1110
11183210
F500030E
00FEF8EF
CFEDF819
0DFB06F5
FFFF0001
06020D17
170E2218
E71A0107
FE00EFEE
E205FC09
0FF81211
1307040B
08FF1005
0717200D
0328F7F6
FFFBE8F0
1107FEF5
04041B10
010704F8
060609F6
0702FBFC
05092BF3
F9FCE802
1513FEFF
080F0E07
0FFF1506
FCFCFAFD
ECF5EDFC
0EF61AF5
F7FCEE13
F50CFA04
0919221D
06F50D02
EFF9FEF1
ECE1EC0E
0AF2F2FC
03FBF504
D9F9F2F2
ED011622
17070BFF
ECF1FCF0
F3FBF8F3
DEE80204
FCF8E9FF
02E6ED08
FA110F14
1B140C03
FCFEFBF8
0001F5E6
E1FC0EFE
0301FDFF
2DFFDCFB
F908FFFD
0D07F403
09F7F404
F5E1EEE9
E7FC0901
FF03FD0D
3009FCD4
EFF5E9D0
F4E5F0F8
FBE1E8EE
F0FAF3F7
EDE9FAFF
000201FE
10FADEC5
CFE9E5F1
00D4EBF2
0DE9EBF1
F6FD02F7
E3FBFBFE
0301FF00
E3DEF4F4
E5EDF2FA
F9120514
0B09E604
1A1511EC
F6010200
FD03FCFF
EAF9EAD6
DDD7DDD4
DDECE3F8
EEE9E2FA
F8F3FF09
0903FF01
FFFFFDFF
0102F4F8
F3FAF4F1
E7F4EAF4
FEFDFE02
FFFCFFFE
030201FE
030100FD
0302FEFE
010302FD
01FE02FF
00FF01FE
02FFFF04
02FDFE02
0101FEFE
FE02FF00
01FF0206
00050206
03FE0102
0001FF00
04FEFD03
03010001
FD02FEFB
FEFDFF04
09111917
0CFEFCFB
01FE0203
0104FF02
FDFDFF02
010302FC
F90001FE
FEF60305
00FBFAFB
0400FEFE
0101FEFE
FD0102FD
050706F2
F5F3EFE7
F6ECEFEC
EDFBFB03
0800F2F7
FC010302
FFFF0100
FD0906FA
F4F4FBFC
EFECEFF1
EEEEF502
04F7F7F4
FCFCFFFD
FFFE00FD
04120302
EBEAF6F5
F7FF00FA
FDF8F1F5
FC030B06
070701FF
03FF0400
040BFEFC
F9FAFEFD
FBFE0101
FFFAF5F3
FF04050B
06FD0003
01000A03
0F0808F8
F9F80001
FEF90509
040300F8
0410090E
0E04FE01
FEFF0907
1307F6F9
FAF8FDF2
F5FB0900
FAFAF2F5
010B090B
1D0BFF02
03000001
030EFCF6
F9FDF4F6
F8F90101
05FFFBFD
02FA0A06
1008FD03
FEFF0500
080F07F9
0402FBFF
FDFC07FF
F903FFFB
010BFF03
15FD0300
01010F0B
181807FF
03FFEDF6
010203F4
FBFE02F3
FAFC070D
19FF01FB
00061114
190D0A06
03EEF203
0C0904F9
FF0600F6
FA080B12
1401FC02
030A0D06
080C0704
F6EE0000
100CF6F1
F9F5FCF2
F4020C0E
1EFDFF04
FFFE03FF
07030D02
F1FBFDF4
FDFBF1F3
F6EDFBFB
FBF11008
12FB0204
02FF0303
090001F3
F4F3FFFD
FAECEAF2
F2EBF501
FFFE0C03
060C0200
00010102
00FEF5F5
F3E6EFF2
F2E8EFF0
EFF8F705
060C0302
0811FE06
020302FC
F6EEFBF7
FEFAF4FB
0000FAFE
FDFC0511
150D010D
08130304
FFFF01FD
F3F3FFF8
05040507
00FFFEFC
FF0B110E
0D071202
09100403
0001FDFC
F8F2F9FD
0605FEFF
00FAFAFE
FE0B08FA
FB0714F6
FF0502FF
00FD01FE
FEF9FDFB
F30601FE
FFF9FB09
00FBFBF4
F2F3E9F5
F5F90003
FEFF00FE
02F5F1F6
FBF4FF0A
07FB0105
FC0404F3
F4EFF5F5
F1FF00FD
0302FE03
0804F6F9
060A040F
08FA0603
010C0DEF
F7FBFAFA
F90201FF
FF030001
0402F6F7
FA110F07
FA01FD02
050606F8
F9FAF9FC
FCFEFFFE
02030303
FCFEFF03
071D1B0A
E2F60C10
130CFDFC
030907FC
FC020103
FE03FFFF
FFFDFD06
2220180E
F6031B28
1F160701
FB0706FD
FFFEFF00
FE03FDFD
03020005
FF030707
0A0D0D0C
0F0A0502
FEFDFFFF
FD020300
00FEFD01
FDFDFF02
FEFFFD02
F9F4FFFC
FE000101
01FE0103
03FF03FE
03FDFE00
FDFF0100
FF07F5F4
EBE1E708
0C1A01F9
FD030502
FEFF0100
01FFFF20
1BF2F40A
00EEF0E1
122702ED
EEE4DEE3
EAECF0F7
EEF40000
0002FA20
11E7F3FF
02050C05
0F030F0A
FFF6ECED
1C00F9F1
F9191301
02FEFC06
F9EAEDFA
EEFAF4ED
FCF2DFE9
F40406F9
FA0AF3EC
EDF20FF2
FDFFF2F8
0C1501F7
FBF9EBE3
F2FEF4FB
F8051301
07021713
EAFBFDF5
000A0401
0B3A2407
0DFE04F4
F904F6F1
F9F80900
03191802
030406F6
032212F3
04211418
170F0004
0F0E00E8
F104FCFB
FBF9FD0A
0F0DF709
021F16F5
E900F203
08F204FD
10F90502
0203130A
0A0108FC
040DF30E
FE15000D
12FCF5F5
08FEF7F6
11111905
0909140B
0DF5FDFA
F5EDED06
FE0C040F
0DF7FCFA
F6F9F3FE
041E1219
1204FC00
0804FAE0
E9FAF3FE
01011C0C
0AECF1ED
E9F3F4F4
02000610
000604FC
F5F6F8EC
E0E2FDF9
01090EFB
FEF4FDF1
F5020004
1306F10A
0A000D0F
FDF102F9
E3E306FA
FF0F0F0A
0BFBFA02
060C0601
FDE2EDEA
030C01FD
F70FFAF9
F7CDFEEA
04061513
110F1013
0E08EEFF
F8FDF9EC
FAFC0910
100F040F
23E8DCF5
05FFFDF2
0A121A18
EEEEFCFE
E6DEE600
FCF30B0C
20191917
2CF10100
02060601
03FF110C
03F6F7E6
F2E7ECF8
F3FF0417
21221F07
14C6DC07
0103EE0C
05020F08
0801FA08
04EEFA07
07200E13
0D1A160D
0FE32601
0201ECFF
030C1D0A
0A02080F
ECF20813
0C14000E
090C0501
01ED14DB
FB0EFA0E
08080D05
110B0D12
06130C08
FE03F90A
F908F2F1
1AE4CCFA
000DDEFB
0200ED0A
0A100006
0A0F0806
0712FC02
EFF5FBF2
13E2EFFF
02F3D9E9
E7FFEA06
0DFAF901
0209FBFC
07000D03
EDEDF0E6
10E52206
FF01E1EF
EAE4ECFB
01FCEEE3
00F5F9FC
0E0F0E02
E8EBFF00
FEFE2002
FDFE011B
F7F60307
F1000609
FAFBFFFA
03FA06F6
D6E0CEEB
12200001
FF01082F
121D1112
F4FA02FA
F0FA08EF
F82604EC
EDF6FAF3
0AFDFFFF
00FEFEFC
13160609
140AFFFB
161BF1CC
02E1D1EE
ED051D1F
250904FF
020000FD
F6F8F6F5
191D100D
F812F7FF
0ACFE126
08F109F2
EC020202
01FD0103
0404FCFC
0002FCE9
F107FAF1
071A0C0F
FFF6F908
FDFE0204
01FD00FD
030301FE
FFFDFFFE
FE03FF01
000100FE
0203FFFD
FD0002FD
FF01FD01
01FF0204
FEFD03FC
01000002
03FE0202
00FD01FD
00030300
03FDFF01
01FFFE00
0200F2F0
F1050302
01060B09
02040602
03FF00FE
03FFFE01
01F6F8EF
F4F6F4F2
F20A04FE
FDF3020A
0C0C110F
06FD00FD
FDFE02FF
FD000506
03F8F8FB
0504E5F0
F6030403
0F160E1A
07FF0705
0003FE01
03110A0E
02FD01FB
FDEFEAEF
0B0F0702
09090701
F5FAFFFF
03FD0200
0A0F0AF5
FAFFF1FB
03FA0008
07FDFDFB
FBFAFCFC
EEFFFC03
000F00FD
04F40203
0503EDE8
E9E6DAF7
F7ED0300
F3EA00FB
EDF3FC04
FF10FB09
04F90508
0CF7D8E3
E2DFF8F4
EEF508FC
F9F7FDF8
FDFF0C06
0014FF11
05FA03F7
FDFBF5EE
E0E6F9F3
F4F3F6F7
EFF60003
01081A08
FF131609
01F70601
F20108FC
F4F6FEFB
F4FEFD00
F8071318
0C0F1800
01040A24
00FF0C07
00050C08
080E16FD
00090902
081A1914
0DFB0A05
0301121F
0011000C
00010709
FB0A00FB
0808FFF1
0310060C
10FC0903
01041512
050DF701
030D0BFD
FC02FCFD
0801F5F8
081306F6
F6F50501
FE030B18
05000409
0E0A0F0A
FFF7F8FD
FDF20108
0B0601FA
FE0DFE02
0100FC0B
0804F90D
08F5F4F7
F5010D07
0A010209
05FCF3E9
FE1CFD00
FF02FF09
0D0EFE01
F5E6E6F7
FD03060D
05F6EEFE
F3E8EEF7
0214FF02
FF00080D
16120803
F4E6F60B
0C020A09
02FD01ED
F3EEFD0D
0F17FC02
FD020700
1A0A0F09
F5E7FB13
0BF800FF
0104F5F0
F5F8010D
1C0502FE
FE000EEF
0F09FCF6
E2E80706
02FBFE07
FCF807FB
F6030917
18020000
00FD09EF
F902F6FA
F903FEFF
F0F6030B
E80A0CF4
F8010E14
130403FD
FC0102FB
08F3F6F5
FE09FAF2
F10205FC
F80702F7
0706020D
1202FC02
0202FC05
0AF9F6F7
F917FD00
0F09FEFE
040505FA
0102070C
0AFFFD01
FFFD0301
FD00F3FC
00100113
15FFFDFA
01090304
FBFE0302
F7FAFDFF
02030200
0000F309
0901FE0A
02F80B00
0D0800FE
070B0105
020001FF
FF0003FD
F9FD05FC
F7E31225
1F131A04
07FC0505
030A08FF
FF0101FD
FFFEFD03
FC0D07FD
02E6192E
251A1813
140E0E05
050B0D01
0304FDFD
010301FD
02FFFFFF
01090702
1408110D
110E0504
070102FE
00FF0201
03FFFD01
0300FF00
01030102
FCFD01FF
FF02FD03
02FF03FE
00FDFD01
FC0303FE
0301F9FC
F8F1FFFD
F2EA05F2
F0ECFCEB
E7F6F9FC
01030002
FEFF02E4
E9FFFCF6
F6F8F7F0
060009FB
0EEEDEC8
E0E5E8EE
FB010301
00FEFDE7
E400F4ED
E9D9E0F8
08EF06F3
F50BEBE5
DD050E00
050D0801
00FD01F7
F80D0C0F
EAEB06EE
F6120A0E
F70302D3
E505FAF1
EDE2DFED
0101F9FC
EE0EE7E8
F5ED07E0
E1FA01F5
E5FB04EA
F3DFF6F3
FF06F9FE
03F6FBD2
F3E0EAF2
110E00F2
05F7F90C
09120AF5
F80007E8
DFF8F2FB
FFFDFED8
ECDFF3E5
FD070BF6
FDEEF905
0E0707F1
0B050DF8
F7E1E4F9
0203F90B
EAF2F8EA
00FFFD03
F9E8F3F8
0A0106F5
00FF03EA
F4E9E3F5
FC08FAEC
F9F001FB
06020D0F
FAFFFDF6
F5FA0700
F4EFF4E1
02D70017
FD08FAE4
F40D05FF
060E000C
0E080500
F8EFEEFF
F6E6E4F8
020DF407
03FC17E8
040DF603
05050312
05FC07FF
0E0307FE
EBFD00EA
F7FBCEEB
FEF91CF0
FAFB03FB
0F0F0A11
FCFC0823
06071302
0601DFE2
DF040A02
F8F805E8
E0F80718
03050D07
F8150D0D
02030AFD
FEFFE9DB
E5101308
00FBF7EE
E4F5F40D
FF020B00
F308F605
0D121206
07F5F2DD
EC1D07FE
02FFF2E8
01FD0C02
09FE09F8
0CFDF60D
0B13170B
FCFBEBE6
EB000D04
FEFAF3DF
F4010E1B
19010301
0704020F
070804FA
FBF0F2FA
E4EB06FA
FDF2F9DD
F80B1018
15191A08
FC020C1C
0C08FFF2
E6E0EDFD
E2EAE1F7
14F901FC
FD000B08
09151221
060D100A
01F9EBE8
DCEF040A
D702F105
04E3EF1C
09EBF201
F8F40314
01F70202
F7E8F1F6
E3070E0E
DC0F0AFD
01E3DE0D
0BF4EADA
E803EEE4
EAEB00F5
0BF9F202
070C1D00
F71BFFFF
03FAE303
0202EBE6
D7EEE7E3
FFF7F5EC
0CFE0B06
060F01EF
F213D600
02FEF8DF
DBEC09FF
F4E8EDEC
E5E5F5EC
FC03FCEC
F6F8F7FC
FD18D0FC
0102FEE1
DFF50805
03F3F7F4
F1F3FAE8
EFFBF0F6
F6FA1702
1118EC01
FEFEFBEF
0A091301
F304FDF6
0C01F6F9
F0FF07F6
F90C0E0C
F404FA03
FD020EF3
201E0D0A
F601ED10
F5FB0A00
05FC1008
12FF01F0
DDFEFB01
02000306
210D253B
2521F90A
0C033227
0B05FDEC
1A200413
11FD0401
0303FFFE
FCF602FD
08F50E17
1A1C2919
0B0F2407
F6F2F7FB
FE000200
FDFE03FF
FF02FE01
00030101
04FDF8FD
020203FE
FDFD0202
020103FD
010102FD
0104F9F9
FCFDF0F9
0312F8F1
EAF000EF
E9F7FAFF
FF03FEFF
010303E7
E70900F5
F4EEEEF9
D1E0F406
F4F6E7E9
F7F0EFEC
FBFDFFFD
000005EC
EF01EFF5
ECEC0402
DDE3FDF2
E8E7DACD
D5F3F7FA
01E8E901
00FDFEF1
0A02E803
FEF0F0E4
02030F01
F3EFF3FF
00180A1F
07FADB02
02FD0206
0F0F08FF
E9DCF5FA
FAF105FC
FC09050A
FA03F70B
1107EA01
03FEFD1D
F407010A
F8F2F00C
0BE9F1F2
ECFDF6FF
02FFF305
FB0CDFEE
00FEFE10
F60B1011
F9E1EBFF
F505F7E8
EEEEF1EE
080707F7
0000FBE8
02FEF6F6
FA050BF0
DA05F2FE
F918FCF5
F4F7F0FE
F302FAFF
100D07F5
0100EBE1
F4F5E0EC
E10004F1
FE0DF8F6
F0F00E10
040CEAE6
F8E3E6FD
FF0100F3
EEEDEFE4
EDF8FFF4
060CF3EC
EFF3FA11
04FEEEED
E8EAFBFE
FD000901
F2F909EF
09FCF8F4
01F9FBF2
0301F309
FE01CCD5
D1D6FE03
FEFA0D05
FA0CFBFA
0AFCF2F2
FDFFE4F0
FCF7E9F8
FDDCBFD3
DBF3FE0D
03F7000A
F8FB0109
F8F6FBF0
ECEEDEFB
01FAE5DD
F6E8DCF0
E1F5FEFF
FEFC0501
05EDFA05
ED0000F2
F4DEE9F9
05EFE0DC
F4F901EF
EE0B0203
FFFE1B03
07F7FFF9
FE080A06
07F1F7F8
0807F2F3
1014200D
F81F02F6
01FB18E2
FD161115
1D150F0B
1003FC08
14101117
18200904
0809F4E7
010122DC
0111191B
101C0903
03030F1A
0C0F0106
110E0E10
EFF6E9E5
00021B03
12110A11
040FF906
11111710
080D0813
17110C10
F5FDFAF4
FF01FF1C
14160AFD
00020507
020B0F09
0AFE0607
F90B04F9
D9F900FD
FE000B09
1C0F160C
00EFF1F5
0803180B
08100805
1419FDF3
F70206FE
01FA00F8
1A11FD03
00F5ED0A
010D09FE
160DF001
0F0605F0
FFF0EB00
FFFF00EB
0C03F9FF
FEEE0310
FBF7F805
1CFDEE15
0A09F1E1
F9E6E5FD
FD0000FF
1301EBF8
FEFD0C0B
E7F20405
09F0FB08
2414F2DB
EDE6ED03
01FDFF01
F7E4DDED
080201FD
F919EDE5
0100F8F3
08FDEF03
0E03FF01
0303FDFD
FCF6FE01
EED90C16
0401D5F9
01FDF1F9
ECEDE5E5
0601FEFE
FD0302FF
FF0303FE
E8E3E8E3
0403E4F0
EEEEF4FA
1615090F
0E02FF00
FE00FE02
FD0202FE
FCFCF8F5
0002FD02
00FDFC02
10110902
FFFDFFFE
01FE01FD
03FEFEFD
000002FF
00FBFDFF
FF01FDFF
FFFFFD02
03FDFDFE
00FF02FF
0300FF00
010100FE
04040203
01FD0302
01040000
0001FE00
FF000102
FEFF0002
FFFD0203
FEFF0302
01FEFDFD
FE00FEFE
FFFF0200
FDFEFC00
02050000
00020202
01010303
FFFDFEFF
0100FFFF
FBFE01FD
FD00FE01
01FD0302
FFFF0304
04FEFF04
FD04FEFC
FF03FDFD
FFFCFE03
00FE0302
FE0303FD
FCFE01FD
02040300
FF00FDFF
FDFCFEFF
03040601
010001FD
FDFF02FE
01FEFD01
02020101
0003FEFF
03040101
02FE05FE
03FFFE00
03FDFCFF
0001FFFD
FDFDFFF9
FCFFFEFD
FAFE0306
FF00FFFE
FE0105FD
FF00FDFC
01FFFEFE
FEFAFD01
FBFFFE01
FC0200FF
FDFF0201
03030104
FE00FEFD
01FCFEFB
FEFFFB01
FFFDFCFC
FE020100
FBFDFDFD
FF0304FD
010302FF
FC03FD00
FE01FE00
FF01FB00
01FDFEFE
FCFFFC00
03FFFD00
02FEFFFF
FEFEFEFC
FB0101FD
FB0202FF
FEFDFCFE
FCFDFF01
FF000204
0002FDFE
FFFDFEFF
FBFE0101
FB010201
FAFCFEFC
FC0301FD
FE03FF03
FEFF0002
01FBFCFA
FFFEFFFB
000001FF
FEFFFDFD
FF040003
0103FE04
04FDFEFD
FEFBFFFE
FAFFFCFE
FFFBFFFF
FFFF00FF
FDFDFEFF
FDFEFCFD
FD01FBFD
FFFDFEFB
FAFCFDFF
FDFA0201
FC02FC00
FCFC0200
0003FC01
0102FFFD
FD00FFFF
FC0202FC
FEFCFEFE
FDFD00FC
01FDFFFF
02FE0200
01FE02FD
FEFEFAFF
FFFFFEFE
00FFFDFD
FEFF00FD
FDFC01FF
0004FE04
00000201
FEFAFFFD
000000FD
00FE01FE
0002FF01
FEFC0200
0402FE01
0302FFFD
FC00FF02
FDFD0000
FF02FEFD
02FDFEFD
0001FFFD
FFFDFE04
0404FEFE
02FF00FB
FCFFFCFD
FDFEFE01
FDFEFEFF
02000002
0102FDFF
FE00FE00
01FD0300
FE010002
FEFDFCFE
01FCFE02
FD02FFFC
FE02FC00
FE0203FF
0400FEFE
FE00FEFD
01010304
0100FFFF
000003FE
FC0103FF
03040400
00FEFCFC
FCFFFDFF
02FEFEFF
FDFEFDFD
FF010302
00010002
02090202
FFFCFC00
FCFCFE01
FCFCFDFF
FDFCFF01
FFFE02FE
01FD02FF
030500FB
FC00FF04
02FFFDFE
FDFF03FC
FDFBFF02
FD00FF01
FF030302
FD00FF03
FF0202FD
00FEFFFC
0102FEFC
FEFD0100
03FEFFFD
01FDFEFF
00FE02FF
FEFF04FC
FEFD00FF
0300FEFE
03FEFB03
02FE0102
0002FEFD
03000303
FD030102
FD000201
FDFD0202
03030003
01010101
010103FE
0301FEFE
00FDFF05
0B0F0A06
060402FC
FFFE02FE
0102FEFD
FEFFFD03
00FF03FF
FF0A0506
0B070305
0004000A
FF03FEFD
0302FDFD
000200FC
FE00FEFC
FC000105
09070204
000200FE
0500FDFF
FFFEFDFF
FF01FDFE
03FBFFFE
FDFE0002
03FF02FD
FF00FBFB
FA01FEFF
01FEFD02
01000302
FDFE0201
FA00FD02
FF00FCFF
00FC00FD
01FCFAFE
FEFD0103
01FDFD01
FD030000
FE00FE01
02FC00FE
FFFDFE00
FE0000FF
FDFF03FD
FE02FEFD
FEFB02FF
FE00FC02
01FCFCFD
FBFDFCFC
00FB0101
FF030100
FEFE0202
FF01FE01
FDFF01FE
FEFE00FB
FB01FEFF
FF02FDFC
00FE0B03
0100FD01
FCFEFD00
FC010102
FDFA0100
FC00FFFE
FB00FF01
06040503
02FEFD02
03FBFB00
01FDFDFB
FFFEFEFD
01FCFAFE
FC00FF01
0405FEFD
FD02FF00
FDFD00FC
01FCFD01
FAFAFAFD
FCFCFEFB
FC0203FD
FE030101
FDFE01FF
FF0200FE
FE02FC00
FFF8F7FA
00FDFC01
FE01FFFE
01050105
FFFEFDFF
04FDFF02
03FEFAFC
FAFAFCFD
FFFE0200
00FDFCFC
01010205
02030201
00FCFF03
0000FAFB
FDFF0003
00FE0200
03010100
03060001
0301FD04
FBFEFB02
FF0001FC
FAFDFDFE
FCFB01FF
FF00FFFF
0301FD02
FF020301
010102FE
FCFCFDFF
FCFFFCFC
FFFCFE01
FC010200
040000FE
00FFFF01
FEFC02FC
FFFBFE01
FC00FBFD
0100FE00
FDFE0400
01010301
0201FF00
03FFFDFF
01FBFC00
0102FCFC
02FC01FC
FDFE0101
0100FF01
02FE0401
02FEFFFA
FAFFFD01
FC01FFFA
FE01FBFC
FFFE0602
FAF90301
FD00FFFD
01FEFFFC
F9FFFC00
FEF90104
01FCFFFD
FF020200
FCFE0201
FEFEFD02
01FDFD01
FEFFFFFE
FBFB0400
03FF01FF
FA0400FA
FCFE0100
FF03FE04
03FF01FF
FCFCFEFE
FEFCFEFE
FE00FE01
0102FFFC
FBFFFFFD
0301FCFE
FF01FE04
FE02FE01
0100FD01
FAFDFF00
01FDFDFD
0101FFFD
FDFE02FE
FF040001
FF030300
010203FE
FFFEFEFD
FFFEFB01
FE01FD03
FE0101FF
02FDFEFF
0201FC02
0102FDFB
FCFFFEFD
0001FEFF
03FDFF01
0201FE01
00FE0003
0001FDFF
01FFFD03
0204FE02
00010200
FDFCFFFE
FDFEFEFE
FEFD0102
FCFEFFFE
FF03FE01
010504FE
00FD02FD
01FD02FF
FEFE03FE
0201FD02
FDFE03FF
090A0401
0200FEFD
FDFDFE02
00FDFD00
02030301
FE05FFFF
03FEFDFA
071308E1
DFE2FFF7
F0FBF904
01FE0203
020005E0
E51007F2
FC0B0B17
EDFD0E27
FA16FD08
0A0B08FF
0907FDFF
03FD08DE
E92F180C
02FCFF0E
03021305
FDF4F00E
1B271819
13F6ED02
FF000D01
061C101A
0BFBFDF2
051E2A0D
FDEAF40A
F7FF0A0B
11F0D700
00FE0D05
01F2FA05
F9DEF0F1
0FF806F3
DCF30F16
010E0F22
2302F710
0303FE18
F2FA0BF0
E0FEEAEE
FE08FDE9
D0E60006
F5FD051E
1AF50517
0001F514
010B0AFD
03EFFB06
0AFA03ED
E1FCFD13
FBE4FDF3
EAE31113
FDFF03FE
FCFDF707
E7F9FA0A
F705FBEC
E8FF0701
FAF501ED
DC0D20F7
00000A0B
FCFFE3F4
EEEDE703
F5F0F4DB
DFFA01FE
0401F2E9
F433F6FE
FEFEF8F9
0903E3E9
F6F1FAFD
F6F3F1E2
EF040412
F9F0DBF0
0103EA0F
0100DDEE
F4F900F8
0AF90703
0701FBF5
11061503
E9EBE6ED
F01BF906
FDFBE6E8
F2040611
FFF50207
120E0AFB
02020404
08FB0305
061EFF0A
FE00EDFB
060C1106
0817080C
0B14F80A
00050F04
02040508
181E041D
0302F10B
151C0512
131C0718
2213FE02
0F120106
F50906F9
04281E0D
FE02251E
04090A15
120C030D
11111AFA
FD04FF07
F40A0706
001F1311
FCFE1C21
F204040B
03FD000C
FC090B01
F8FB0A09
FF110612
081E0CFA
03FF220C
EEF80B11
08070A13
EDFD0F0A
F9FE0909
071E0AFF
FDFBE9ED
F8001125
FFF90C0F
0809FAF2
02FC0D02
FE12FDF5
040CFE09
1507FA13
FFFDEB16
F3FDFF03
030A0EFF
E1EEF70A
0CF4F3F1
F3FA0E0F
0D052B06
FEFAF520
EDF3FE0F
FFF8FAF4
F9F0FC09
0AEBFBF7
FC07F60B
11F013FF
FFFFF0F6
E5DFE70B
04FCF2FB
0BFC010C
FB090F07
FFEF0115
02DFE8FE
0300F504
E6EBED08
0CFF00FC
F4FBEDFD
0100080A
F4FAF302
FDD1E301
FDFE0501
F7F802F1
0AFCF5F8
F5EEFBEC
FAF004F5
EBFFF609
F4D9F402
FDFD02FA
EF0307FF
FC0700F3
F5F9FEEB
F9FCF1F8
F70400F5
FB0F0F03
FE000402
00EFE1E5
DEE3FF09
FAE6F8FB
E5E0DAC7
D703000A
121010FE
02030101
F2E7E5EA
E6E8ECDF
EEE5E7FA
E4D8DFD6
BCD5EBFE
03010203
FD020003
FE01FAF7
F6F9E8EF
EAE7DDEA
E8DEEDFB
FBF8F800
FDFFFF02
FF02FD03
04FD02FE
01020402
0B09FC00
FF0202FC
02FD03FD
00FD0103
030303FD
04060308
10110816
161A1D17
19151003
02050609
030202FD
030303FE
05050911
07050D1D
170F2623
1415110B
030A0F10
03FF0001
01000602
02FDEAF3
F615351D
191F070B
00F50509
F1E5E2E2
E601FF03
0102F4FC
EAFC1403
FA100B18
0CFF021A
15FE0BFD
F5EC04F3
F6FD06FF
FFFD03E8
FD0BEEED
F9101114
FDFB0113
11020202
0B04080C
01F91200
01FEFDE7
0CF3D50B
03080A0C
00F70D12
0F00FC09
02FE0A02
00FE1403
FDFA02E1
EAEBEEFD
0C0D0C08
F90A1506
17131511
081904FF
0A101AFE
02FE02EF
F3FE07FB
FF040B0E
01FFFF0E
FEFF0508
00F6E9E9
0CF90F01
030103F2
E6F00708
0701170F
E7DAE0F9
EBDEE6E3
D4D3E1F1
04FF1C06
00FD04E9
D7F31712
0E131205
E4CAC0F5
EAECF1EA
EFDADFFF
F2010E09
FDFFF1E8
DCFF0B07
020A0F0C
F9CCE0F7
F103F801
F7ECEF0C
F1F30803
FF02F0F6
09F40300
17091118
F8E9E2F1
F2EBF709
0C00E911
05FB06FF
00F7F3FD
1000F905
060B1406
FAF9F0EB
E6EEFB02
00F7F101
0215FB09
06FDF7ED
05EF0614
0F0EFB03
06FBFAF3
F0EA0AFC
06F70004
0C03F404
04FDEAD6
F9F50005
011007FB
FF00EFD7
F2FB0C02
0906F805
100801FF
00FDF5D3
06FFFB03
F302F6F7
EDF7FEF2
E0F10403
09060C0B
0C01EBFE
FF00F1FA
05FAF7FD
F5FE0300
0BFAFACD
E500FF07
05001307
0F09CAE4
03FEEA01
FE01F0EB
FDF50EF8
05F5E7C9
E9F90E08
07100707
150BD9E8
FFFEFAEB
ED05FDF9
F0F8F9EF
10EBD1DC
031912FC
09010EF3
0C1BFAF9
FCFF00E6
060901FE
F5FFFEF6
FA01F500
280F07FE
050011FA
F52B05FE
0100FAF0
040B0301
FCF8FEFE
03F7071F
20040500
09060101
0A1A1607
FE01F5EC
F2FDFDF8
00F8F604
F3E8070F
140B0A09
07FB0816
F80E1D06
FF0302EF
02FFF8F4
F4F6F7F2
0501110A
0608F800
140A0D0A
FC0B18FF
03FDFC01
18270309
F1ECF500
17F9F70B
F5F6190A
0D0906EA
F4F202FF
FFFDFD08
FBF90AFA
FFD9DDF6
220A1613
030AFF0B
07F81F12
0907FEFD
FC0002FD
01030300
02F800EA
E704110D
0FEFE0F9
FC07120B
FE0300FE
FF02FFFF
FEFF02FD
01FF0302
01FDFFFD
0003F7F6
FAFAFCFE
01010402
03FE0003
FC0002FF
FD03FE03
02FD0102
030303FE
0300FE03
FC0201FE
FF0000FF
0302FFFA
02FEFDFC
00F9F2F3
F9FFFEFC
FB020402
FD00FDFD
FE03FEFA
FF02FFFE
F2F2E8EB
BCD1C6D5
DCE8ECF5
FBF6F902
06FD0301
00FFFFFF
FCF70508
1014FB02
E9DAD1D3
DEE4DAD9
ECFD1620
0101FF02
FE0201FF
14F7091B
0AFFE9F3
E7EF08F7
DB0406E5
F5FD1D18
F1F0FF01
FE01FF02
DCCCF406
090EFAFE
F4FF090F
FDF7EAE4
EBF900F9
CBF1F602
00030510
0E27180B
FB0F08FC
0F03F8FB
FF01F404
030AFD05
CCDFF209
011A1113
0C130B19
F806FBED
F7FEF4F1
06130B04
06110B0B
F1C2DF0D
FE200E0E
0E121626
12131000
FCF0F70C
040C0AFE
FC000F19
0ACED9FB
FF1A0500
0F191F09
0E0D0CFB
08080007
F4050402
08FD1003
FAE6DCFB
021807ED
FB161101
0108040A
0419000E
060C0908
FF04FCF7
F5F8EB01
060F19FA
01050508
0D120314
0910F606
04FE0107
0603F2FA
F615FBFA
FF16170B
010BF608
1108FDFB
00E7DFFF
FDF3F7FB
F2FCF9E6
FA18F20C
FE1B1E16
F9150A06
0DFFF9EA
DABEE3F5
0604F4F5
E1F7EBE6
F9FD0612
010C1511
F6F9FEF2
F4E5EAE4
CBD5F3FB
0500F10E
F9FAF4FD
F5F6FF08
050312FC
E6CED1D5
B9C4D0E1
EAFF0102
FCFB0D02
110CFE01
05EE0901
02FF10DE
D7C9BAD0
D3E6FBF4
0DFF0013
0E060A10
1617050F
09031707
000010E4
D2D7D2DE
ECFA0D19
F9F70F16
0F0810FC
05171516
150DF80B
FFFD16F6
DBEBF608
0C0404FA
F4FE141A
0E1706F9
0EFF04FC
070E09FF
01032B1B
E4DDE60F
130C0409
FF031002
EFFEF10A
10FAFE13
061118FE
03002B3D
EEEB0906
FDFEFC0A
0DF20A09
EE00ED01
FBFC0A11
F4FA1B00
01FD2A19
F5E6F6F2
F6070C0E
13F9050B
0102FAEC
F1FC000E
0DEAF002
00FE21F1
F2E4EEFC
060C0702
0809030C
03FDF4CB
D8E2FE09
1BF2F2FE
02FFF4E4
F9FB131B
0004F6FC
F7F7F9F6
EEEDEEEF
EBF9F800
06DBFBFF
00020FFA
09132005
FC03FA0F
01F70006
FF07FBF8
130C08FA
2713FEFF
FD03F70E
0F1009FB
09F7E3EF
0BF4FB07
03020701
F10C0109
16FE0003
0300FFFF
FDF90713
0306EFFC
E1080C03
FF040924
210B01EB
F20401FF
FEFE00FD
0A080A06
0B141908
0D190BEF
FA0CF90C
04F2F407
01FD0200
FE040000
FEFEFC03
FDFD0303
0005FFFF
02FEFEFD
FF020001
00FDFDFF
0200FF00
00000000
12171A15
0A0D0A03
FAFCFDFD
030003FE
FEFD0201
FDFF0000
FF00010B
181B1D19
2C221910
FDEADC0A
0F0D1206
0501FF03
00010100
02FD0412
1109091B
1EF8F1F7
EDED1125
190C0CFB
0B0909FD
FE020101
010D100B
0D0A1404
0AEAE9DE
CFE1EBFA
03F6EEF4
050B0804
02030606
0A0CFF0F
0A0914F8
EED9DEBA
C9DFFA00
FCF3E5F8
0F0D020C
0000FFF9
F905F400
0C181101
F5DDD4CA
D3EFFB01
0BFCF8FC
1005F501
01FCF6FC
100FECFA
10050C0F
F5D1BDD1
E9FF0702
0CFEFBFD
F80501FD
FF0006FB
1308ED00
040B0708
DFD7C3E6
FE08FF01
0906F6FC
F0FD05F9
02F70607
1B17F3F0
FD02F9F4
E3EAF5F7
01090C09
0D0207F4
F6F91FFE
01FC011B
1E22F6F8
04FEF3F0
FAFAF8FD
0B110A0F
1F180101
22101600
FE02FF19
0A17F800
09FAE6E8
F2F7F8FA
0CFD021A
1A1C0C11
221B0A05
030002ED
F708FA08
FF09F8E5
F2FA010B
06FBFB07
0307FFFF
01130809
000305E9
E70BFC00
0314FFF3
02FC090A
F9EDFAFD
FCF1030A
01180604
010200F3
EF0FF3F7
0104080B
030C0B07
0606FE06
F4010A06
F60311FF
03010600
030BFBF8
FDFE0106
F8080A05
FE030204
FA00080C
01030C01
020401FF
F1081403
0003F8F9
FFFEF003
00070A00
F4F9FF0F
040C09FF
FF00F8FC
EB0101FD
FBF8FCEA
FC09FEFD
FDFF19FE
FEF4020A
F7040500
FF02FEF8
E801E4F2
FC09FDF6
F8FBEBF5
F70D0FFB
01030708
EDE60200
FE0200E9
DDF5FAFD
F600010E
FD020008
1103F800
01040909
06FFF3FD
FE02FBEC
E5FB0E08
F5F904F7
FBFC0BFE
06020104
070100F9
07FCFBFD
010204F2
E8ED0203
00070CF9
FB0B150A
FFFF0107
1212F7EA
F7FAFEFF
02FF02FB
F8FE00FB
0008F810
F2040A0B
EFEBF80B
010EF3EE
EEFDFDFE
02FF0000
F004F9E7
FCF3EBF2
DCFF0010
00F4FA07
FC2304F4
E7FFFEFF
FFFCFC02
ED00ED0E
0B1400EF
04170A03
17150606
141007FF
E4030204
020101FD
F1F5E0FA
00FAF2FC
1201F5E4
05152306
F9FCE300
FD020000
02FDFDFF
0506F7E3
E5E70BFE
FEF5DFD5
EFF5D1DC
CFE2EDF8
02FD02FE
FEFFFE00
0602FEFF
F9FDF9F9
E5F2F5F9
F9F2F4FD
01FC0000
FE0201FF
0202FF00
02FE0002
FD01FDFD
FF03FF00
03FEFF02
0201FEFE
FEFD03FF
020202FE
FDFE0101
020503FD
02030202
FE0203FE
0001FFFF
FE0002FE
00FFFFFE
00FEFD01
00010403
01000103
FCFDFAFD
FEFEFDFD
00FDFDFF
0002FE00
03FFFFFF
FFFC0102
FC01FFFE
FAFF0100
FE000202
0103FF00
FEFFFD04
010000FC
00FD01FB
FFFFFD01
03000101
00FD0601
0400FEFC
02FF01FF
FFFE0002
0301FFFD
FD00FEFC
FAFF02FF
00FFFE01
0001FE02
01FE02FB
0206FFFF
FEFF0200
FFFDFCFE
FC00FCFF
01FD0201
FEFDFD02
02000100
FCFDFDFD
0101FDFF
020102FE
FBFB0204
00FEFEFE
020000FE
02FBFFFB
FB03FFFD
000202FD
00FCFC01
FCFE0101
00FC0000
00040301
FEFFFD01
FB000300
00FE0201
0401FCFD
0003FE02
FEFB0306
02FD01FE
01FDFB00
FCFD01FF
FC030301
0000FD01
010102FF
FF0102FC
010207FC
0202FE02
FCFDFCFB
FE04FF00
FEFEF9FE
FB0001FC
03020004
01060800
03010101
FCFBFB02
0004FEFC
FEFFFDFA
FAFB0001
0202FFFF
020605FF
00FFFEFE
00FB02FF
0300FBFD
02FF0000
00FF01FB
010200FC
01FE02FC
FC00FEFA
FDFD0102
0000FDFC
FFFEFD02
FB00FCFB
FE000100
FDFC00FD
FDFEFBFE
03FE01FE
FBFEFCFE
FEFC0001
FFFEFC00
FEFEFEFD
FC0100FD
0301FCFF
FCFE0000
FBF8FEF9
FFFEFCFC
FEFC02FB
FCFEFDFD
FF020303
FD030000
00FD01FE
FCFAFFFC
FCFFFB00
00FEFCFF
000001FD
FA000102
FDFEFF00
FF020003
FEFCFF01
01FFFB00
FCFE02FF
FFFEFD03
FB00FFFE
FD010403
0301FDFE
01040200
00FFFE00
FCFFFFFF
0103FE02
FCFF0402
FFFE00FD
FEFD02FD
000102FC
0102FE01
FF010303
00FD00FD
FC0300FC
01FDFE00
01FFFE02
FDFDFDFC
00FE02FC
01010100
FDFEFDFF
FB0401FD
00FD00FE
FDFF02FE
02FC02FF
FE010001
FBFFFEFD
0000FBFB
FF0704FF
03FC0002
02FFFCFC
FE010102
01020300
FB03FFFF
FAFE02FE
FB01FEFD
01FF02FD
01020400
FCFFFE03
FEFD01FD
03FF0006
FF0203FD
FF000000
0002FD01
03010303
03010101
02FF03FC
07050504
000401FF
03FF0203
000300FE
02FF04FE
FF0201FC
06FEFCFD
FE04FDFF
FEFE0101
01030000
03020200
00030400
0400FFFF
0601FFFB
03FE0503
FDFE00FC
0301FD00
0003FD03
02010202
02FD02FD
0101FDFE
FD040301
03FE0100
02FE0003
FD030302
FE03FEFF
FF00FEFF
03FC0202
FEFFFD01
FE000101
03FD00FF
0102FD00
FEFEFF02
0202FC02
FDFF02FD
020100FF
FE020003
0000FD02
FE03FFFD
FF01FE01
FDFDFEFC
FF01FEFD
02FFFFFD
FDFE0200
0002FDFF
0101FE02
FD00FEFE
FFFFFDFC
01030201
00FD01FF
00FE0003
010402FE
03FD0000
FEFD01FD
FE01FF01
FDFE02FD
01FF01FD
FE000302
FEFE0001
FEFDFDFD
0200FE01
FDFFFEFE
FC01FDFD
FD000003
FEFE0303
03FEFDFD
000200FF
02FE01FD
FEFE0102
FF010101
FFFDFEFB
FCFE01FD
FDFDFD03
00000201
FE010100
FE00FFFC
FF000100
FDFF0201
FDFE00FF
01FE0001
01FC01FE
03FE00FE
FDFCFD00
02FDFFFE
FDFC00FD
0303FEFD
0000FF00
FD020103
02FD0201
01FC0000
01FDFDFE
FE02FBFC
FCFD03FF
0303FFFD
FD0200FE
FDFFFC03
FF01FFFD
0000FEFF
00FDFB02
01FE0001
FE03FFFE
00FD0302
FDFCFC02
02FDFEFF
0201FFFE
FC02FB01
01FF01FF
FC0300FE
03010102
01FEFC00
FC0000FD
0102FD03
FF02FC01
00FFFE00
FE010101
FFFE03FE
02FF0001
FFFFFFFD
FEFCFEFF
FC00FDFC
01FEFEFE
04FD01FF
FF0102FD
02FEFD00
03FC02FE
FEFE01FD
FF0201FF
FEFF02FE
00000303
03FDFF00
FF030103
01FD00FE
01FEFFFB
FBFFFFFF
FF00FE01
FFFFFE01
01FEFE03
FFFEFDFD
0200FC00
FFFEFC01
FF01FDFD
FCFEFDFE
FCFF00FD
FD0201FE
FFFE02FC
FDFE01FC
FB02FEFD
00FF02FD
FE00FDFE
FEFCFD01
04FD00FD
01FFFE01
020000FC
FCFFFCFF
FFFFFE03
FFFF0202
FD030201
03FFFFFE
FFFE0003
FEFCFC03
FDFE01FF
02000203
02FDFD02
030102FE
02010302
00FEFC00
FDFE02FD
FF0100FD
FD02FFFD
FF000201
0201FE01
0202FFFE
0202FEFF
0000FF01
01FCFE01
00FF02FF
FE00FE01
02000403
03FDFD03
03010203
01010102
FFFE02FD
01FE0000
FE02FD04
FF00FCFD
02010101
FF03FDFE
00030102
02020101
FEFEFF02
FEFC0500
03FD02FE
03FFFE03
00FDFE00
03FD0300
00000002
FEFDFFFF
FFFDFEFF
FFFEFFFF
FE01FEFF
FEFF0101
00FF00FD
FFFFFF01
02FDFF00
000202FD
FF010303
FFFF0002
FD030000
FE0101FD
FDFFFE01
FFFEFD02
000101FE
FDFD0301
010100FF
FCFE0202
010203FF
FAFAFEFE
FD01FD00
FE010402
02FDFFFC
FFFD0300
00FCF7FA
F9FAFAFF
00F4E9F0
F20403FF
FEFCF8F8
0201FDFC
FCFD02F7
F5FCFDF0
ECECEBDE
CED8E6FA
0A1602ED
FDF5FCFB
01020103
02FE00F8
F1FAFDF2
FFEBE2E7
D7D2EB01
FFF1F0E7
E7000809
0A02FE02
03030405
040DFE05
0CFFF5FE
1005F4E4
E9F500E7
F5FE1125
1C090001
030103FE
EEFE08E3
F8F801F9
02FFF5E6
ECFBFF14
08EEF20A
FB0601FF
03FE0108
EF0508E4
F009F8E3
E5EEE6ED
F5FF0F0B
1605E805
F71F00FE
01010304
F112FCEB
FB00F5FA
04E4DBF4
F601F6FA
120BF804
E7180A00
02060612
0C18FEFF
08120702
FEEDEDEF
FB08FCEB
020AF1F3
F71108FF
FF080121
090AFFFC
0C060A05
00FBE7E1
FC06F9F5
1312EBF0
FCF0F9FC
00090606
FFEEED07
0A021216
06E3D1D2
FE16FDFF
0304F9FF
05FDFC01
04090705
00F90602
03111A10
F5E2EFE8
0604FAFC
FD0308FD
EAE509FF
020B0209
FF0AFE09
000C12FE
E6EFF2EC
FFFE02FE
00090403
01F00F01
040305F6
0916040C
0907FAED
E0E3E1E5
F1090A03
030F0C00
00FF01FD
050209F3
0611070C
FE0103F0
EAF2E3DD
FE0B0811
16FF0506
F8ED14FC
02FE1F04
07FF0700
0704FFFB
F6FDE9F1
FD070C14
14FD0CF1
EBED11FE
06FD1FFE
FCFA0905
0D03FBF0
FF02EDF7
F0060E0A
0A0406EE
01EA09EF
030222F5
FA010F11
040AFDF2
F0EF03FB
FE0E1A10
0F060406
0E081BEE
FFFE1FF4
F510090D
0701F2EF
FDF1F0EA
0C171905
FEF5EAF4
F7FD0B03
0002F9F7
FF100C09
0F0BFAEF
F1F3F1FA
07111C09
05FFF8F7
F7E70303
030202F9
F1061412
03FCEBF5
03F7EF01
03150F13
0907022A
14E7FCFD
0100FCEE
DBFB1012
0EFBEDEC
DDDEECFE
0410121C
0B0E0F27
2EF9F0FF
0001FCDE
DCD4FEFF
F6D9C8C2
C9D80502
F601070C
07080A19
1800F205
0302FEEE
E3E3E6D8
C4B4B2DB
D7FF170F
FF080C08
FF0DEE08
150EF9FE
FFFF00FF
F4F5E1E1
C4D2E3F9
EBEEEEF8
0E1AF203
0A031209
DA0D03FD
010100FD
050900F6
FAFFFD01
F40D06FE
06FC0504
0107F7FD
EF0101FF
FEFEFF00
02010404
1D1C1918
18FBF901
00FAFA11
00F9F9F4
FEFE01FF
000102FD
FF02FDFF
FC03050B
15161304
1010211F
02010404
0201FD02
00FFFDFC
03010003
02FF0000
FBFDFF04
000201FD
FE02FE02
FDFE0104
FF02FE00
00FFFDF9
F6F41311
FEFDFB05
120EF5EF
F4F9F4F9
FF02FD01
FE02FEFB
F9FD0608
000C1314
0DF808FF
F3F1FFFB
090EFE08
0F090202
FE020100
FF17260D
140BF215
1D090509
1B131A16
17151DE4
E20404FF
01FFFD0D
EA0B190F
0D050504
F8EBF1E8
070E0906
FBE005EC
F00DF8FE
FFFC0703
E5E7F506
F60005F7
F7FBF2F9
0AF6F7F2
FDFB16ED
DEF0EDFC
01050E05
F5E8F8E9
F90E0E00
FB00FC01
0CF5FAFA
02F101FF
E4F1E8FA
FF16210B
EBECEBFC
0C060607
000002EF
FC0006FF
FDFA0606
0CEDE9FF
00001F0C
FCF3E8F3
F9010C09
F50307FE
FF03FB02
0200040C
ECD7EA00
01010B1A
EDFD0CFF
0806010B
1700FF08
04040709
FCF5070A
D8D2F20A
FD06F701
F7142919
221D1607
0A03ECE6
00FF0701
02F4FAEE
EBDFFF0C
FE06F6FE
0A151A0C
210B06EF
CDDBE2F3
F0FCFF00
02F3FFFA
0012DEF9
FF03E6F3
E0E7DDD1
D4B8C6BE
D9F4040B
FF0202F2
020606F6
F509ED0B
FB0106DB
AAB3A584
A7BBD5E3
FC130EF3
0705F103
0410FBF7
FAF7050D
0807FFD9
C9BFCFE6
E70801FC
0B080A09
030C1001
E7FAFC0A
12F405FD
040117F2
F5FE0E0F
0AF70307
0C140C04
F4FD0FFE
F203FB19
23FF0402
FF04211A
0B0C110F
05090600
0E090B06
0605050E
FB0B0B0A
09060111
00052017
110A0B07
0F090C02
FE060A04
EFFF02FC
FEFCF2EF
F202F619
00042315
181915FB
F8FB01F2
FAFEFDFA
FD02020E
0114FBF2
0C1B1C0D
02FE0C09
0B1608FF
FBFDFD06
FA00FEFC
06090A14
FEF7F61C
EC291A09
FFFF111F
19060C10
050E0F03
FFFC0102
11FB0701
00F400F8
F5291100
0411161C
07F70409
02FD13FE
F3FA0603
00FD0C0E
02120C0B
1B320F04
04030E10
05FEF1FA
05FDFC05
F9020802
FE040013
0B0EF522
221A0CFF
03000C15
1E03190F
1D140601
EE00F80B
0A0603E8
F0031F16
150C0FFD
FEFE0820
180DFCF9
FA03F702
09F9F3FF
F611FA01
F8F5F8FD
221C17FF
0303060A
0B0F1309
0E021505
16FEF70F
12000103
0FFBEBF8
110F1400
FE0203FF
F4EDE500
FBFD1B0D
15141405
F2F9FBFD
F9D6DDFB
01FDFE00
0200FF00
0003FE05
0203F4F7
1D071316
0BFEF9F5
E9E0ED02
FE0203FD
010302FE
FCFD0100
FEFE0303
00040103
FD0101FD
000101FD
FD00FE02
FE010300
02000201
01010102
02FD0400
F9FF0302
01FEFF02
FE01FFFF
FD02FFFD
01FC02FB
070201FE
070D1303
18232205
120502FF
03010100
FDFF0102
01FEF7E4
F2020AED
E7F20719
1C231B10
1503F303
00FD0200
FFFFFD04
F1FBFBF6
12170609
F3EFF3F9
0209181D
1315F6FC
E2F50302
FC02F5FD
E2F5F4F7
15150B02
F8FDFEF8
000A081B
251F0A04
F2F3FD01
FD02FF17
161E0E0C
01F6F8F9
0201FEFB
0E151717
030D1301
F0EEF7FE
01FF000C
FA0D1806
F30308FF
01F3FDF8
08141A0A
EEF10F2B
07E3EF02
02020000
0806210E
1110FAFE
0F060B0C
0E0B130B
F7000C1C
22EFF302
0205F10B
2006150A
0E1202F5
F90004ED
F306040B
08050303
150AFC02
0402FB0C
05050B00
1003F103
03FCF3F9
0E11F5FA
00FD01F5
0C0CFE02
03041007
FAF30608
0D0AFAFE
F0E0D5E1
0D0DF6EF
F8F9F702
101600FD
000B15EA
06F2070B
170CE9E0
E4CDD5F1
0C09FCEF
F7FBF701
12110203
02070AFD
0EFF120E
1208E3C8
DFEBF0FB
F70303F1
F5FC0A06
000AFC00
FE020DFB
1412180D
0407E6D2
DFF20800
F8FEF6F4
F5020209
FCFCFFFD
01FF0B02
1E150A07
00E9DCDD
CFD6F704
FF00F6EA
00040E09
00F90401
00030504
1A06FA01
00ECEAD5
C5D4F906
EEF9EDE7
F905FD00
05040002
020302FB
1605F908
FE02FCF1
DBDDFEF9
F1F5E7EF
EDFC00FF
0100FC01
FFFD03EA
F808F7FA
0C07FB05
F2DEEEF3
E7E9E7F5
02F9FEFF
0AFBFFFF
FEFEFBFA
FBFD0D0D
FEF9F1F9
F7F101FB
F4FFF30C
05F80401
03EFF902
0001FEF0
ECEBFB0E
0502F8F1
FB070D0E
0211FF0A
F3000705
F2D6FE01
03FEFCF4
06ECF607
0C05F8EF
F60D1123
0506FCFC
F91316FA
FCEEFAFE
FFFFE4DE
0607ECF9
0B1203F2
FA07FCFB
FC080501
000C07EA
FAF7FDFE
FD0202F6
EEEAEAF7
F50105FE
030AFC00
FBFAFDFD
0B0704E8
EC000301
FD03FDFE
DFE2EAF6
F6FAFCFE
0AF7E2F7
E8F303F7
FB180EE7
EEF401FD
0304FFFF
020E08FB
05F1FA00
0801FB0F
12E4EC02
110AF5F7
FC01FF02
FDFE0102
F9031013
120B050A
05220505
1A0B0E1F
10FE1207
FC000203
FE01FFFE
01FEFD03
06070911
18141F19
0E0F0C0E
F7FD0602
02FE02FD
03FEFF01
0000FFFE
FF00FE03
FFFEFE00
030304FF
FE02FFFD
00FF00FF
02000100
03FF0400
0004FEF8
F2F50301
FF00FC03
00FEFE01
FDFE01FF
FD010000
FCFEFAEC
F3FDEDEC
DDE1E5E9
ECF802F7
FF00FE00
FC0100FF
FFFEFD01
FF03FDEE
FDDCD7FB
F4E1E7F1
CFE7EDEC
ECF90F0E
03000103
00FEFD02
02FAF6E7
F1DDCFF4
F60D1906
F205F3D9
00F7EBFB
FCFC0907
020303FF
F8FAF4EF
D6E6E9FE
E5FC09F7
EF02D7EA
05F3F3F2
F4F00200
0003FFFD
F7DCD9DB
E1F6FA09
E1EA02F2
EEEDF2FE
07FAFE04
09F90519
01170100
F2E3ECEA
F8FD1404
F5F1F2EC
F2E2D9D6
EBFB00FB
0005F518
FE110B02
0900E5E2
F2FC0400
0BFAEBF3
04FBF7F4
FB04FC01
1319EA0D
FE080E05
F4F3F4F6
F405FF0A
030C020D
1A251503
060A040D
2031F80F
03050D03
EFF9F006
00F3FB09
010B0C17
0E161D22
1E1E141E
3828180C
000106FB
0705FEF6
F9FD0306
FEF9F5F7
0006FF10
20201B3D
4A2F14F9
FE0007FC
F4F6FDF5
0F110704
FCFE03FD
ECF2E6F2
03F71BFE
0E0D25FE
FE030BF7
E500F90A
09030408
1306FCEC
EFE5D8D2
D7D0E7DD
FE0F2001
03030F00
F916FEF7
00010409
FEFBF3FD
EEF8F1DE
DED9D7CE
EDFEFDFD
FD030117
09070804
01130907
03FCFEFE
EB0103F9
E8E3DCDC
E1ECF9FF
02FF0417
FC03FEF8
01070704
FAF4F0F8
F1ED0005
FAE8E8E7
F7ECF8FA
0201FF04
FD0301F7
080C09FE
F5F0F50C
FDFC0505
0EFEE9EB
F2F2F4F5
FD0009DF
F5FDF808
06FEF302
08FEFAFA
F907FC06
0BE5EEFA
DFF4F1FE
020116E6
FA010004
F6FFF4F7
FE060104
0E01040D
FEE6FE0C
DCEEF603
FEFE0FE9
FDFA0003
FCFAEE00
FCFEE40F
07090614
0FF3FC0A
02F0F500
FD03FCEA
F90FF9F7
F5FCFC06
FBFBF505
F9120606
10F8FD07
08F4FA00
010303F3
E2F606F0
E6FFF600
0E02F8FE
F5090B06
0D01FA0B
18F90203
0003FF01
E9DBE8DE
FD1100FC
05FD05FB
F702FE0F
1205F8FE
0AEA01FE
FF0200FC
DAD9E1E4
FA101515
11FF0E03
F80B0413
F9FC0706
16EBF4FE
00FF0101
F1EFFC02
F6F4030C
05FE01FF
131E030D
F6FE0606
16F5F4FE
01FFFC02
FAFAE7F0
F7FBFC0C
20FFED0E
13F8E2F9
FE01FE00
FC020102
01FDFE01
FC00F8FA
F9FBFEEB
EBFF0BFB
FFF2DDE5
03FAFC02
0301FF03
0303FFFD
FFFF0303
FDFF01FD
FD010003
0001FD00
FE0002FF
FF02FCFE
FFFEFFFE
FD000101
FFFEE3DF
E0FCE2E5
ECF4F9F4
F8F802FE
04010203
00FD01FF
03FFE9E4
F6E7F508
F3D1D0EC
E4E6EDF7
F4EAED04
F8FDFF03
000001FD
02FF04FB
15110F08
0B07140A
FDEAFEFC
1AFCE3DF
03F1FD02
03020005
0509132E
261D0F14
1412080F
0AFF0906
0B100AFF
210B0500
FEFE0106
191F2725
03FAFF12
0810FAFD
08FB0BFA
07FC0E07
0CFF0C07
FD05E705
F1040CFB
0708FC00
F1F8F60E
0D0CFB02
F8FDFBFD
12141505
FFF70019
DD0FFDF8
06FE06FF
06060C08
0D0C0311
0AF0FA05
12080D0A
00F10AFA
F60F0CFA
0A02110F
FEFDF5FB
FAFE0304
030AFDFB
EFFBE808
03FBD0EE
FB0D08FE
10030004
FAF3EDFB
01F8EFF3
F7F801FB
F80C0B01
FEF8F7FC
FA0F0C01
0C04FEFF
FD071006
08050206
FB0109F8
FF2F1803
FDF9FF04
FFF4FD05
FAF50D06
0E131013
F7101301
F706ECF2
E81A1EFE
0000E5FE
E8FB0C00
06FF050A
090B050C
F9FF0C02
0BF2F0E0
E2101DFA
0003EE01
E4FEE8FE
0B0C06FF
0A0902FE
12F7F000
F6FE03E3
0A0A14F7
0407F100
F0D0D0E1
E8F8F30A
1B04F305
08FF01FE
FF001209
F7E5F4FF
040601EC
EADBD7AE
B0CBEA01
16080A06
0106F909
020FF919
D9E507FC
FE0602FF
F402D9C8
C2B6AEA2
D0E3EBFD
F2F80307
0D05020E
FFBEE6F8
020BFE05
F70BFE00
00E5D0C0
C8DCDFF1
FA0C070A
0C0CFE1E
10D606F3
1504FF2E
0116291F
181010FF
EAEEFCF8
FA00FC05
F90DF8FA
03E709FB
FEFDF23A
FC152519
1C1B1D14
10FD02F7
EEF504F5
F904E2FF
0BCFDAFD
FFFDEC1F
04151C0B
17081804
0C0708F9
FC00F8F1
04F60AE0
F1C7F8FE
FCF7E6FE
F7F8F806
03FD0805
0806FF03
F9F802FB
04EDFBE3
F3D6EE01
FF04EAF1
DDE7EBF5
F5FE00F8
FCFC01FC
02EF01F7
06E8FBDF
ECE2F701
01FD08EF
EBFAF1F5
00F90603
01F9FFFD
FCF41CFA
F2F3F406
3226F0FE
02FFF4FA
0F14F208
03F9FB07
FC02FBF9
1A1002EA
08F1EC07
1AFB0202
020002FB
0108FB17
06F90404
F70EFF01
1710FDF4
08F5F7F7
FB01FDFD
FD0301FE
1E0E0608
F3111713
1AF808FE
FB050AF3
FF0AEE06
0103FFFE
FF0002FE
FDFEF5F2
FCF0EAE9
E6040F1C
0FF0FDF9
F1FFFD04
00030300
FFFDFE02
FDFC0200
03020101
FFF7F600
FE020302
03FD0103
FE01FDFC
FDFD0304
01FFFCF9
F3F10A0E
F8EAE7EF
F7FFF7EE
EAFAFD00
0302FF00
FDFF00FE
FDF7FA04
F7EFF7DB
030D1007
EDEEF50C
0A04F6EF
FC00FE00
FEFE0102
FBFCF302
F8F90208
F6F60A0A
03FCEEF7
FC02F6ED
ED090000
00020206
F40D0507
031506FE
FBFCFFFD
E9000808
04FF1906
FC00FCFE
0103FD01
E3EF0DF8
FEF908FE
010204FB
F0F4FDFB
F0EFFA04
0010FDF5
00010014
F70D1104
FAF2080B
00FEFDF5
F9FEF8EF
F9F80A1C
00F6FFF5
00E31C2B
FDF80F07
02FB0704
000BFB00
FB06090E
F90D0809
17201AF6
03FD260C
F5F1060A
03FA0EF9
08FAFBFE
01080801
0200F709
131D1CF7
FE0801FD
F80E0D08
000404F3
FBFEECE9
FC0E0706
0709FD0B
10EE09FD
FE05FBF1
F803EEF5
00FAF800
0101EDCD
EC1E050A
FD0A0A05
13FFFCFD
0800F6FB
0307F1F0
E5F3060A
0A05D8A6
DF091106
0906F402
1102F5F9
0304FDFC
F105F0F7
EDFA030C
1D20E19E
EF140C0A
060202FE
0EEEEAF2
030D1CFA
0000FC06
0FFA0514
2909CDB5
E7190001
130003FB
F605FAFD
FE0E2003
F514081A
13FE0005
16FBD9D9
EE0F010E
11FD02FC
02080BFF
FEFB24F4
FB0EF611
FD0D1707
0900CCDE
F5070706
01F010FA
FEFB0307
02FC0EF7
FA00ED02
FEFFFBFF
E7E4E1FA
050C0608
0509F9F7
FFF40614
01FB1207
1BFF0BFB
0002FF00
EBDF0409
0917040D
0115FCFE
100D2518
FFFD10F1
F8000C0A
070AFFFF
E0E70413
140D0F06
FE04FDFA
0BFD2A18
FD0C13F2
EAF5110C
0700F4F3
FCF30B13
080A010A
04FC07F3
09F60C03
031321FB
E3050C06
01FFFDFB
0011FE00
0201ED09
F3040103
FDE40D01
03061F0E
CE0100FC
F5FC000D
040F0207
09FAEDF8
07100D21
17FD1A02
03FF1F11
E3F901FC
03010609
03FE04FE
08F4F3F7
FFEB1015
07FC1905
02FEF805
F8FE0E1F
130A0B04
0FFB00FF
0600E4E5
FFF80217
FCF60400
00FE0FFD
06FCF906
0512F0EF
0A0AFE04
F70BEDDB
0DE6EAFE
EA050501
FDFDF701
14ECE6E8
0D17F4F4
F2EC05F7
07FEF4DC
E5E4DCE7
DEF60301
02020300
02D2C9D9
D7F2F5FD
EFD2F60B
EFE3F9F4
EAEAEEF9
F8FF00FE
02020100
080C00FB
FA0CF2EE
0DE4DEED
FC110209
080F0304
03FD0201
010003FD
000202FD
FF020003
00020103
01030301
FEFE00FE
01040002
03FD0003
FCFF0302
FF051A24
1F030414
1812FCFF
0303FD03
00FFFDFE
FEFFFD02
03030E12
14200F13
29473135
FCF1DFE8
E6FFFE12
0EFF0001
03FE02FE
FDF10201
02190C0C
FB000101
02F9F100
F11D3116
111A1903
0302FEFA
25F9DB13
EAFEFFF5
F81014FB
000A05FC
07F2EFFE
1213FFE6
02000804
34DEFCFF
F604050A
0701FBF1
F604FAFE
FF0D1615
0121E0EA
01FD06F1
FADFFE07
FB10F804
01F506FC
FCFF0B02
03000B04
F7010308
FF02F3F2
211AFE0D
FE06FF08
040D06F8
080A0AFF
FE130500
F60510F5
0000F5F3
220FDEF6
01F90B10
04040B06
FD080711
FEF9FC08
CEF2FBEF
01FD21D4
1214D508
EDF5F5F9
08FEF0EF
03030A09
F6F50308
D3DCFAFD
00021DE4
FE0FFE07
02FDFB04
030BECFB
070102FF
F90FFEFD
DFF3F403
02F7EEF8
0813F90B
08F1FA05
00FEF6F9
13FFFAFE
FF1AFB04
F5ECF1FF
FCF9ECFD
0B090B04
F90205F0
E2D6EDEF
FEFFFC06
F80AED07
F3F10002
FDF70CFF
190D0CF4
E4F6FFDE
D7F4F3ED
F60C05F5
030204F4
E6F31C01
01FEFE06
10FCF9ED
DCBECED0
ECE8E5E7
F8FD00F0
0600FEF4
D6F21D03
FFFE03FD
DDE0D3E5
F908F5F7
FCF2ECFF
FBF1F5F9
FAEEDAE2
DCF62102
FF0204EB
E5050C06
FAFFFAF0
F7FB01F2
01F8E8ED
E0BEC3D8
DC2737FC
FFFCF20C
0DFF0616
FC03F8F2
05F0ECF4
FBE9DFE3
DFB4CEEE
F53A2D20
FD00F611
12032026
111713FD
13F3E6E8
E5E0D9DE
F2EE06FE
03274214
00FD160B
0C01020E
0E131619
130BF9EA
F0EEED00
0C0801FD
0808310C
FF071934
04111410
FF13091D
10FEF8FA
13070C00
FD0A0706
18312303
FD0C162D
050AF8FC
F904FF18
0C0A0D21
1F27201A
F1F20C19
284B2800
FC012935
1104EF09
151BFDFD
FFFD0400
0B162D0F
0805101C
283D1902
00FE0424
F6FDFE02
FDFF010D
0902FB01
1315161A
241A232B
1E24FFFD
FEFDFF0F
12EA09E5
EAF9F5F4
06FF06FC
04060E11
2B2E213C
442501FF
FEFD0103
FCDD09FB
F5D8E0EF
ECF51414
E3EDFB03
10FDDBE7
000300FE
0302FFFE
01060901
FBF8F8F1
FFFEFAF2
EDF2E0E5
F1ECF1FE
01000001
01FFFE00
FCFDFDFE
0102FE00
0100FBFA
F8F9FEFE
02000002
FF01FE03
020203FF
FF00FD00
01010301
FFFE01FF
01FD01FF
0303FD03
00000200
FDFEFDFE
0003FF01
FDFD03FF
FFF7FAEC
DDD4050B
0A0C0A03
02FDFFFE
FE0003FD
010101FE
FFFEF4F5
EDD60617
1103F923
13171A13
0A0403FF
FFFD0104
04030321
0E100C09
F2CEECE8
F400150C
03FE1320
0A010002
FEFDFF08
07F5FD1B
0FFCE4F0
E3FBFFFD
11000207
10F7EF1F
1407FB08
FFFF1505
FBF3EA0B
CBDBAACC
DCFEF4F9
FCFBF5F5
120EF702
05FC0B03
FEFC0231
0BF8F71F
0EFDD1E7
10F0F6F9
F7010405
1A05FC18
0AFC10FE
03ECF63A
01E8DA09
1409C0D6
01F903FE
FB0302FC
FF0904F1
E8E01B00
FDEEFF05
F7E8DFFE
23F0F1D1
D7F60801
FEFEF106
040BFE04
F4F7110E
FEF1FF00
FCE5E6FA
0BDBE1E2
E80E110F
17020308
EEFEFFFA
1D000503
FEF50D0A
F9F4F8FD
CCD6F5F8
F007180F
0704030C
ECEAFE1E
27FC0207
00070E15
130D05EA
F3F4F8FD
F016020A
FEEAF7E3
CDEDE809
10FEFF0C
01030812
0B0FEBE4
F905EDFA
050C1DFA
FDF4F7EC
D7E0D6D2
E4060106
06020510
0119FAE7
F9F40307
FEFF16F2
090FFC01
DACFC7E0
F70BFDFE
000106FF
FCFBE7E0
E7020009
02030C05
07F7E9F9
F3FDF0F1
0A180CFC
FEFCFEF9
120903FB
F303F8FF
00061300
FFFC01FA
F3F0EFF2
05110CFE
0104F902
1D1B11F7
F6F6F0F9
FD030602
12F60609
F5DFDC01
12FEFDF4
FD03F018
210B020C
03F5F8F7
F8FA03FD
11E2EFFE
01F41027
281D2EF9
080E0209
11E2F803
FF00000A
00080606
05FFF903
D8E50911
1F1C2E13
06010EE3
09F8F903
00020004
061101FB
060013F7
DED7E600
07070B11
02FF07DC
EF0903F2
FE000C08
010B0302
02FD0C03
05E6E2FF
10100B01
070206F6
EFFE0208
FF0E0507
04060CF7
F5E20002
F2E60413
16130DFD
09050EED
E8EAF2FB
040A07F6
FD060EF9
06EAF211
F9011021
11161902
0202FAF9
011200F4
00FE0D13
05FBFEFE
13F40015
01FB17FC
1D1D28FD
FDFD01FB
EEECEBF8
EA06EEF2
00E006FF
E7EBE320
1B141B15
0B070601
03FD0300
FDDFF5FD
F71DD0D3
0805F8C6
D5E00B09
FB0004FE
02FD02FC
01FDFEFE
03F3E5EB
E3DBD9E1
CAD2EFF0
F401080D
FFFBFD01
FE0301FE
FDFD01FD
00FD0303
04030609
071A1200
000D110D
020002FD
0303FF03
03FF01FF
0100FE01
0101FD00
FD000203
FD00FE03
FD02FFFF
FE00FD00
020201FF
FC04FDFF
03FFFF04
02FF03FD
0300FF03
FFFFFDFD
FE02FF02
FFFF0003
02000204
00FC0202
FE000003
FD0300FD
FDFF0200
04FE0103
FE04FD00
FEFCF1F4
FE05100D
F4ECF3FB
FE0B1315
0109F6F1
01FD0000
FE0203FF
FC000804
020A0706
FCF5F0FD
0313130C
04FF02F2
F1FD01FE
FD03FFFC
F2FC0D0F
06F4F2F9
F2ECEEFD
040D1009
050EF4EF
FAFE0401
020103FD
FA0F131A
0F0C0604
FDECFD06
04050109
0802FDE8
0C000004
03FF0700
FAFC0B17
100DFBFD
FCF601FA
FDFAFCF1
F10302F6
08FFFD04
03FD050A
FA000812
1508FDF5
F1E3E5DD
D3DDE5E3
EEF903F7
04FEFEFF
FF000606
F3FC0814
190A050C
FFF2F9EF
F1F6F4E8
E5F0FFFE
FC010202
02FE0004
0108FF07
0BFF07FA
020107FE
0200FC01
03F2040A
FCFC0300
FDFD0006
000300F7
0001FC02
FE060602
FEFE03FB
0305FA05
05030403
FFFFFE0D
02080806
0A0DFF0D
06FAF9F7
F7F8F903
0B08FF08
010205FE
FFFEFE10
0E11080B
0E0401F9
F0EFF2EE
F2EDEA05
0B040BFD
01FE06FF
FDFDFE11
14100304
06FEFBFF
F1FF0D07
F3E6ECF8
09011302
F8F80505
02030109
0F01E6EB
F9F7F5F3
F5EEF6FD
F1EAFFFB
F50E050A
F80004FD
FE000009
13F7EDE7
EEFB08F1
E5E3F4FD
FDF8FD03
F3FF0108
FDFE07FF
0100F708
17F9EAF4
F2F203ED
F7EDE4F4
00F5F3F9
F1090003
040004FE
0103FA02
FDF0F1F6
F1F0F3F4
F4F8FAF6
FCFAF9EC
F1110BFF
030E0603
00030102
01F2FB04
02E5F6FB
00F3FB03
03FFFFE8
FC1201FB
060301FD
FDFDFC06
00F7FFFF
0D060801
FA04FDF7
FE01FFF1
FB04FFF4
090D0201
00FD0007
07FE0D04
0A030E0B
07FE00F9
FEF5FAFD
0607030C
08060302
FD00FC07
0A020C00
05FBFE08
0C100A09
FD000B08
FC06030D
FD03FD00
0103FC03
0604060A
05F6E4F4
F8020503
FCF7FD01
050E1702
F2FE0101
FF020103
FCFFFE07
0A1005FF
FEFC030D
0910120E
10050AFE
05FDFEFE
00020301
FDFEFDFF
FCFEFDFE
FD040704
050404FF
FD0804F8
FCFFFFFE
00FF0104
01010201
0101FF03
01010709
0605FC00
FC0205FF
FDFE0300
04FF0002
0002FEFF
010301FF
00FF03FE
FBFFFEFD
FCFBFE01
01FFFD01
00FF0303
FDFDFFFD
FD01FD03
0001FCFE
000203FF
FDFE01FD
0301FE03
FF030101
FD00FF02
080908F7
F9E8E8EA
DEF00704
F8FE0606
0101FEFF
02FE0300
0702FCF5
031011F8
DACCD0EA
FB0C0411
0D0D0B0F
09030303
01010507
09190802
FFF6F9EC
C3CDF907
FDFF0213
0D0D0C1F
0EF7F800
FF02FF04
151A0DFD
FEFAF2C9
A6DCDBEE
FDFAFA10
0C12090D
F9EFEEFF
03020BF6
F600F110
271AE6B5
B9001306
FB0C02F9
F700F3FC
F9FCF601
03010407
030EFE07
1100D8A4
D3090811
FF04FFF0
F7ECE801
0700EDF5
FDFE1410
0A24FC10
06EEC8AF
EBF90F0D
F8FE0CE9
F9E7F803
02FF00F6
01051611
271D0C0C
1202E8C9
DEF8050B
F8F3F8EA
D8D0E70B
18141AFE
FE050B03
1D180C12
0806E3D6
E6F10D07
FBF8F1F1
D8F3E803
062113FB
FD060905
1B04F608
04FEE9F3
F1021A08
EFF906F5
E9FDFEFD
F9261604
0007EE04
0A03FC06
04F1FF02
09131507
FFFAFEF7
FD0101F9
EFF50E01
0400F307
FDFCFF0B
F9F7FA0D
010809FC
05FAF5F4
09050A03
FBC9EF02
FFFF0808
F6030F03
F00500FD
F50700FF
0B0C0504
1512FE0C
02D9EC00
FDFF0B05
FC1207F3
010A04FC
0706FFFC
00FDF60F
0A070306
F5EBEB00
01FF0DFB
06051008
0704040C
0906FB00
F7040507
00FE0B10
EBF0F9FA
020304EA
FC15020A
0C09060D
0B03FC02
01020D0B
0E050A10
F1FBECE4
01FE0101
0002F003
040A03F2
EFF5FC00
06000007
13161B11
F7E9EBE5
FE06F90B
0DFBF102
F907FAF6
0306F505
0E031204
0E0EF7F6
E3DBF404
07F6020B
1DFDEB05
F50CFDF6
0AFDF80C
18131CFF
0FF3E5E3
DAE3FF00
FDF5FA02
1B11FE0C
FF06F4F0
F9F90008
070C12EF
F7F4F7F4
D6EBFF02
01FEF904
1003F50B
F5F700FA
07040600
F6080301
F1011501
F2FFFAFE
020303F4
EAF5E8FD
F7F206FB
00FEF900
FB0BFB13
060B11FB
050AFDFE
FD03FDFA
F409051A
1C110503
01F1FEF4
F1FB0414
09FCE9F8
1E02FE04
03FE0101
F8F40119
160CE5FF
FDF2FDFF
FBF81212
0AF5E5FD
04030002
FE00FDFF
F7F206F6
0901CD00
EEEBFF00
E0E8E2D6
EAE9F7FD
03FDFFFD
FE0300FE
FDFDFDFC
F3DCE003
E50305FD
CDB6D1EA
D9E1FBF8
FFFD00FD
FE000100
0101FFFE
FCFEFFF5
FD0E0F0E
07F8070A
05020601
02010302
FDFE02FF
00FEFEFF
00FD0301
03FEFC03
FDFD0203
FC010302
03FF0302
FE02FDFD
FF000301
030104FC
FDFBFDF5
F9FBFD00
02000202
FDFE0100
01010304
FF000104
090A07EB
EBF0FCFF
0BF2F8F9
F9FDFCFF
0707FE00
01FD0205
00040C1B
0AFFF8F1
FDF9E4F9
03EFE0F2
D6D2FD01
0704FFFD
00FFFD00
06111223
2811010C
FF11FBF5
D8CCD6EC
C9CBFB04
0201FDFD
0001FF02
0B141924
14F6F707
0602EE09
FFD5DEF5
E0DAF6FB
FEFCFBFE
0100FF07
F90308FF
E4EDEBFD
FCFFF5F6
03C5D7ED
E1DCF802
0104FC00
FD01F905
F1FDFEFB
D8EFF909
0E080EFA
F0E0F4F4
01E6F5F8
0300FBFB
0200FC03
FFF0EE01
ECF40511
100D10FD
F4C7F202
11E80DF9
F706FC00
00010008
01F60212
F9F70A08
0D0D0EF9
F5CCE205
F1DBFEF8
F6F9FEFE
0200040E
18FC011D
ECEF1C06
0A1602FB
F5EADF07
DDE2FCF2
F5FBF9F7
0103FE0D
1202F7FC
DBED0AFE
FF0503F8
04FAE3F9
F9FB06EC
FB0B0006
FE010109
100307EB
EAF9F701
000A06FE
08FBDAE8
F9F8F5F7
0A17FD0C
02020000
0E0F17FD
1107F6F5
F9F1FBF8
01F8EDFC
F9F6E8F3
030C0404
FE01FE04
08080DFF
FA12F4EB
F9F90900
FDE3F10B
0EFAE3F5
00FAFE04
02020002
FDF8F4FC
0209F6ED
060601F3
00ECED06
1708F4F6
FBF9FA06
FF07FC00
FFF6F2F0
0612FEF3
07FF0FF6
F1EEFD04
0E0000FF
08FE040C
0001FF01
FF04F6F0
07FC02E1
FD0512F5
FA050F0C
05FD070A
09071C1A
01FDFFED
FF09F4FF
ECF50EDD
EA020906
01001902
F2FC0608
0F0E2116
020000F3
F1EE0705
F00315EC
F2FE0C09
0DFF0308
FEEDFCF8
02071007
FD0207F0
EEFDF103
FD051807
0EFB0B02
100B060E
0CFFF5E3
F40105FD
020305FF
F502FC04
0E091504
06FD07FF
00F0060F
05FAEFD3
FB0602FD
FE000503
040A131A
EBF0EFF3
10FD090C
FAFE1B12
FD00F9E8
FBFEFA00
03FEFF04
01FE0AE7
EDF7E8EC
0402F906
0211130F
1206F0F6
01030F00
FEFCFD01
FEFDFE01
FCF2E807
05FAE5EF
F61400F0
FDFCFE00
080C0A01
0001FEFE
FFFCFDFE
FFEEE7E9
F90F06F9
CFCED9CF
D4F9FA01
0401FCFD
FFFEFD01
FCFEFF01
00FCF7EA
E7FFFDE3
E7ECEBF5
F9FAFAFF
010103FD
FD0100FE
FDFEFDFF
FD00FEFF
FD00FE02
01FFFCFE
01FC03FD
FE000103
FD01FEFF
0002FF02
02FF0400
00FF00FE
02FD0202
FF000003
03010002
03FF0303
010001FE
FD000103
FEFF03FD
01FF0002
01020203
FFFE01FF
01FD02FD
00FDFD00
020102FF
010000FF
FFFC0400
03FEFE04
01FFFDFF
03FFFDFE
02000000
00FDFFFC
FCFE00FF
FE010103
03FD0100
0202FE03
02FF0201
03FF0103
0202FF02
FE00FEFF
01FF02FF
0002FC01
00FEFD02
0102FC01
FE00FF01
02FEFFFE
FC03FCFF
00000100
0100FE03
FDFEFE02
FE0002FF
FC000202
FD0200FF
02FEFD03
020003FD
0002FDFE
FF02FDFD
FE00FDFE
03010101
FD0001FE
FCFEFEFD
FFFEFEFF
FC010301
00FDFF02
03000400
FFFCFDFD
FFFF0201
03FF02FD
0203FF01
03030301
0200FDFC
FDFDFE00
01FC01FE
FDFDFFFF
FE00FEFD
FCFFFFFF
FD0103FD
00FEFD01
0301FFFD
02FE01FC
FE0102FB
FEFD02FC
0100FFFC
00FEFDFD
FFFF0003
01FEFD02
FCFFFDFD
FEFE01FB
FFFDFFFD
0000FC00
FE0000FD
0302FF00
FDFEFFFC
0102FF00
02FDFEFC
FF01FC00
0101FF01
FD0003FF
01FF0102
FD01FF03
FF02FDFF
01FFFD00
00FD01FF
FCFBFB01
00FEFFFF
FF010102
01FEFEFC
FCFFFC01
0101FE00
FEFBFCFD
0101FCFF
00FE03FF
FEFD0304
FF010102
000001FC
0001FD02
FE0101FF
FD00FE00
FD030100
FF000304
FDFE0201
00FDFD00
00FF01FC
FDFE02FD
0101FE00
01FDFD01
0202FFFE
0100FEFF
00FC01FD
FCFD0100
00FE00FD
FD00FC01
FFFDFEFD
FF03FFFD
FF020303
FF010100
FD00FEFE
FC0001FD
FDFE0200
030101FF
FE0303FF
FDFFFF03
FD0003FD
00FC01FE
01FCFDFD
0101FF01
00FE00FD
FFFE0103
02FFFEFD
02FD0201
02FEFFFE
02FD02FC
02FCFD02
01FFFEFF
020203FF
FE01FD02
02FEFD03
00FF00FE
030300FB
00FD02FE
00FFFE02
FCFF01FF
02020302
0100FEFF
00FEFE01
FDFEFCFD
FFFC01FC
03FF02FD
0103FE01
01000001
010201FD
FDFF01FF
FF0101FC
03FDFF02
FE02FDFD
FFFE0402
FDFE0304
FE03FDFE
FFFEFE01
01FDFD00
FEFDFD01
000000FE
02010000
01FDFF05
01000302
FEFEFE02
01FE0002
030002FE
FC030003
FCFE0000
0102FE03
0300FD00
02FD03FD
FDFD0000
FFFFFDFE
FDFFFD01
02FEFD01
FFFF02FE
03FF01FF
010302FE
FE03FEFF
02FEFD02
03FE0102
FD0303FE
020103FE
FD020302
020302FF
03070401
FEFF0201
01000003
FD020002
FE01FE01
FD000A06
0809170B
090C01F9
FC03FB1B
15060A04
0200FEFE
FD030103
070B130C
1C302517
0CFF0DF5
DDE9F1F6
011E1018
180C0100
FEFF0205
0C29270F
0C06E907
1D0E0FF6
F5FBFE17
1103EDE1
00F5F401
FF06FA0D
17181902
23252503
0E0FEEF5
F7F9FEFE
EFEEE9E5
DAD7FD0D
FFFF150E
FBF2F1FD
00F303F9
0600F506
06F709F5
FEFF0305
F1D70A0A
FD081714
050D0201
F8FEF6F5
03FDF9EF
F7EC09FF
020609EE
08120608
031DFF0D
160D04EE
00FCF410
FDEDF9FA
F8EE02FA
EDF1F9F9
11FE0602
0306FF04
0B050E01
FBF20AFA
FEED05FB
F6FCF7EA
FBF3F6F6
070DF6EF
FD0600E8
FE13FF02
00F3F3E7
F8F7F9FB
02F8F8F0
02F10F01
0F0DF0FC
0308FEDF
E80C05EF
E8EBDFE2
FC04F6F2
FFF4FDEE
0E02F7FD
0EFC03F9
0008F9F0
F6FCE0D0
F0EDF3FC
0705F8FD
ECEDF6F5
03DDF600
EF00EAFB
FF07F0E7
ECF4E6F2
0D02100B
1707FAF6
EAF0F9F2
FAE5F5F0
0B1DF6FB
010202FA
00130F0A
0E0F0906
FD03FA03
ECECF8EE
FCFAF4FA
1B290501
02FDF00C
060805FB
0506FD04
FCF10000
FBF8FEEE
0406F7F8
0C0400FF
02FEF319
030E0EEF
EDF3FFFD
EFF2F5F7
05F9FD06
0E04E7F7
14FC0C04
0104001C
FD12FCFC
EAECF6FB
0704F4FD
09FF130E
07131301
121A3009
FE02FF03
E5F5030C
05F303FB
F5F80006
0A050B17
052412FD
050FD60F
FC090217
F0FA1413
06FCF5EB
F6F10916
130E1D0D
F9130302
151EDB21
FDFFFD1E
F3050F08
F8F1FB09
0D07201D
0D0710FE
090A0806
E0122A03
FDFF082A
F108FD1E
161E1215
201C1C13
08071501
13150D03
F92D11FC
02131816
EEF3F416
22141E16
170A1212
00101801
FEFA0719
14311001
FF08290F
09F9060A
0F161107
05090511
060907F6
050C0215
1721FFFF
FC0307FE
FAFBFA04
040C0B0A
0BFF1112
120BFC03
0510252F
2C1CFCFE
0101E9F8
F20F08E6
F70BF902
02FCFCEE
F1F304DF
C6D4FEFF
161604FF
FFFD01FB
F7D9C9C7
DBCDD0BD
C6E3DEB2
BCC0E7CF
CFCBDAE0
FAFFFD01
0002FE02
FFF8F3F6
F3F2F8F9
F0FC04FF
FEFCF5FB
FFFBF5FF
00030001
01FC0100
03FEFFFD
01FC0000
FDFEFEFD
01FC0200
FFFE0101
02FEFE00
00FFFEFD
00020101
FEFE03FF
FAFA0201
02FEFFFE
030303FD
03FF0100
01FEFEFD
00FEFCFC
EFF0FBFA
F1F40306
0702F7F5
F7F8F4FC
0003FDFE
FFFE01FD
0000FBEF
E8D5D8DD
DEE1FD0E
090412FB
F901FAFC
0301FDFF
03FD00FD
FCFCF4E9
EEF3E100
ECF00A0B
081519FC
FF02191C
0CF6FDFF
03040814
FEFAE8F3
FCED0401
FA01F4FC
F8061202
07F7050A
1F1BFCF6
02FE050C
E4EA0D1B
00080808
0204FB08
0FFE0A00
F8FBFAF7
060EF8FB
FD0D081D
FC011E03
10102119
0D0D0214
0B090809
09FE01EA
FCF0F0FB
FC171516
0EFA230F
180E0F0F
120F1203
FEF903FC
FDF6F6E7
F5E7EFFF
FF02161A
0B020207
0FFBFC08
04FE0AF2
F7F60401
F80601E0
CBDD0202
FFFD0C13
05ECFE11
00F2F0FA
DEDCE6F2
FA0F0812
03060FFA
CCF4F605
FD020220
12F0F2F8
DEDDD4D6
B7DCF3ED
090E0C05
06F2F4FC
E0FF0202
0403FA12
FBECF9E7
D2CDD9D0
E1F404FC
0006FF08
FFE5EDF4
07121406
0202F502
F5F6EDE3
E2EC0A07
17121304
FFFBFEF5
04F9FE03
0E290709
FDFFFBFE
F700FEEE
07182622
1D1704FC
03E6FFFD
FC1005FB
0915FFFA
FC0BFAEF
FB060D0E
151F170F
0F050817
060103F7
0C0C12FB
0B18FCF5
FE0AF900
141A1808
00FCF9FA
FDFCFC02
09FC0105
04100D02
08FF1100
02040B0F
24110602
E4F80300
0C0F06FE
06070309
081106FA
08000902
FD0B1501
04FEF9F9
FEFDF3F6
0C19FD07
F90E08F9
0FFAF0E6
F6DFC3FC
0F0B1603
0208F5F4
F4FFFBF6
F6FBF5FC
0006F90B
140C01EA
F4E0C3F9
FE040203
FC0803FC
E6F1E8E7
F2F3F4FD
FE0CFEFF
0614F70A
F9FD06FF
0308021A
FB0208F6
E7EFF5F4
FDF701F7
F702FF03
0514F7FD
02060BFE
02171E15
F9EE060A
F9F30D02
05F3FAF9
03FB0102
010DF4FF
F5050000
FF072123
090EFF09
030101FC
F7F90208
FBFFFFFE
10F3F10C
16F7ECFD
00FD0825
16200B09
060A0B0E
F0F7FF08
F4FC020A
06F60316
16F9EC03
0101132C
201BFDFF
08FE0F02
F3140B07
FBFEF500
19FC020C
150B0003
FF040408
121D03F8
010E1B07
FBFFEAE5
E7F3EE0F
10FBF3F1
00F602FD
0100FD01
0F0C1925
F1F2EF00
10FC0406
061C3F0E
1104FB0B
060003FD
FD010000
FFFF0602
05FE0D0B
03040403
FF010E0C
F902FE01
00000303
FEFD01FE
0101FD01
02FFFF01
010100FD
FE01FEFE
00FF0101
03FEFF02
040001FD
00FEFF01
0003FFFA
F506100E
00FFFFFE
000103FD
FFFEFDFD
02FE0302
0002FF01
181C271B
211A160D
E2F0DDDF
F0F3F203
0609FFFF
02FDFFFB
FD02101C
19FBF9F7
F3EAF4FD
1307F8F4
D6D2D5FA
060503FE
FEFF0309
F4FDFE01
1000FAFF
F5E1FAF7
FAFEFCED
FBF4E1FE
FF0E00FE
FF00FF0A
170CF7F5
F2EFF804
F9FB0305
F40AFDF6
FF0400E0
F5FBFEFF
02FE0D18
160CFCE8
F3000B12
1C0E00F7
F213FBF6
FAFBF701
0B160009
01F70315
231809E9
FC160B12
0708FCF7
FAFDF0ED
F5FDFF0B
06F2FB01
FEFBF80D
1E1305FD
0D1A240C
FEFF000B
FD08F6F3
F5FA0013
010106FE
00FAEE07
25171212
12150606
F3061610
0C00F7DF
EEF80616
040C0AFC
00FDF9FE
120A0A0F
03F4D7E8
010F1402
F8DBD8D2
E1F8F908
010B0AFE
04FFFF06
FE0CF6ED
E9EEE60F
1C1909F2
EADEE4EA
EAF6EEF3
F400F6FC
01FE020D
0209EDDC
E0F70415
0A040EF7
F5F8F8FD
E5F4F0E8
02150109
01010109
F814FAE5
E8000811
0C02FCEE
FFF90306
FA01E9F1
07030F08
FFFE0205
000AFDFF
F40A0914
06F6F3EC
E7F5ED07
02FEE9E7
F70F0CF9
FDFEFFFC
F9F70710
0104100D
0212F7EF
FBF10109
040AFF0C
201F110B
010001FA
FAFE090C
FB151C02
F0FCFA02
06FB08FA
F9192115
1C242803
02FE01F3
E3F50A07
FA02FCEA
F3F7E5F6
FAFCFEFC
FC041409
04FACD15
010101ED
020201F8
F6EDF9FF
FFF3DDEB
FB05FE04
0C0E1708
0EFFD221
02F8FCF8
03FFFB08
FFFE06FC
FCF8F7F5
09F7F5FF
08152213
01142507
FDF8FCF9
0AF5F806
000B0305
0504F9F1
F1F4FDFD
FB110E05
090C11FD
FF000404
02EDF905
F802F8F5
FDFEFEFD
03F9F7F6
F40103F7
05FD1702
03020017
14F1001C
FDFCFBEC
F5FDFE0A
F9F8FBFA
03020A11
0CF7FC02
01000412
1501051B
F7030409
FDFAFB0F
0502FD00
FD01111C
03FEFD00
00010119
10160614
11FF030B
180600EF
E4E5DD0C
FC0DFD05
F7FEFE00
0001FFFB
131D2526
1A030D07
09150AFE
03FCFF0B
0208ECF6
FDFDFF03
04FE0301
FBFEE5EA
F5F5F8F4
F601F8F3
F4F8EEE4
F2FEEAFD
FEFF0303
FFFE01FD
FFFEFD03
FD00FE05
FFFEFEFF
FFFEFCFB
FE020403
0001FD02
0003FE00
02010300
00FC0103
FE010100
FF000303
03FD0000
0103FE01
FCFD00FE
FF03FF03
02FE0103
0203FDFC
FFFEFEFE
FE040201
03FDFFFD
03FE01FE
FDFE00FF
02030202
FF020201
02020103
03FFFD00
0301FEFE
FEFF03FF
02FFFDFD
FD02FDFE
FFFD00FE
FFFDFD01
02020200
FD03FFFE
FD0102FF
0103FC03
FE0302FE
0102FD00
020102FD
FDFF03FE
03FEFFFD
0000FE03
FFFDFF01
01FFFDFF
02FD02FC
FDFEFF03
FC0002FD
0101FD00
03010201
FF020300
FF00FC01
FCFF0002
01FEFDFE
03FF03FF
00FE02FD
03030003
FFFE0301
FCFEFFFD
030000FD
FEFF01FC
FCFEFC00
00FF00FD
FEFE0003
03FEFF02
01FD00FD
FEFF02FE
03FFFF00
FF020102
FE03FE03
FFFE0202
01FFFDFE
FD0303FC
00FFFD00
0200FD00
03FDFFFD
FFFCFE03
01FD0002
FDFE00FC
020201FD
0201FEFC
FE02FEFF
0000FF02
FFFEFDFF
FE00FF00
FDFFFD00
FC0202FC
01FEFDFE
FDFDFDFF
01FD00FE
01FE00FD
FD020202
FD00FF02
FE01FE00
0100FEFC
01FDFC02
01FEFC01
FFFEFD01
FDFD01FD
01010001
FF010101
01FF00FF
FEFEFEFE
FFFF00FF
02010101
FF020200
00020202
0000FFFC
0001FF01
FFFD01FD
01020102
FEFF01FE
0302FF03
FDFE02FD
FEFCFE02
01FF0101
FE01FFFE
FEFEFE03
FFFE0303
FF030301
FF02FC02
00FFFDFD
FC00FDFF
0102FD00
FCFC00FF
FFFF02FE
02FE01FE
FC0303FE
0003FF01
FCFC03FD
02020200
02FD02FD
FEFEFEFF
FEFEFD02
FE02FE03
010302FD
02020003
FCFEFE01
FF010203
FD020202
01FDFFFC
030101FC
FDFF01FE
FF02FF00
00000302
0100FDFD
03020200
FDFEFF01
FF0100FF
FF0002FC
00FE0201
FEFDFEFD
030202FF
0000FFFF
00FDFEFE
0103FD03
FF00FF00
FEFEFEFF
00FE0000
FFFDFF02
FD020102
FF030303
FCFDFEFC
0003FC01
FF0101FF
FEFD02FE
FFFC02FF
03000303
02010003
FFFEFD01
FD000200
01010200
02FCFEFD
FF01FC02
FDFFFE00
0203FD01
03020102
0000FC01
0301FDFD
03010300
FF030101
FF0100FF
0200FEFF
03FDFF03
00000303
01FEFD01
0000FDFE
01FDFE02
FDFE0000
FFFFFDFE
FDFE02FF
00FEFDFF
02FEFE02
010103FF
00FF0301
FE0303FF
0103FFFE
FD0101FE
FDFF0202
010301FE
03010301
00010101
FF00FFFC
00FE02FF
00FE03FE
00FE02FF
030000FE
FF0303FD
02FE02FF
FEFFFD01
03FE0201
02010104
03010101
100EFC0C
160B0C12
17060304
0301FEFE
00020704
07090402
EEEDE4F7
C9E1DE00
13020104
F70C1111
03FCFDFE
FDFF0609
04FD01FE
E0F7F201
F806F7FB
04120604
FB0DFDF3
EAF8F301
FF030106
F9F0E0D0
ABEAF6F4
FA0AFDEE
EBF30B06
F60100F8
DFE1FD0B
FEFF07F1
FAE7C7DC
EDEE01F4
E7F6F700
03FD01FD
F8F70511
02F1F708
FE030F13
E9FDE6E8
E6EEFFEE
FF0002ED
F9FCF5F5
07F60204
1A27FBF7
FEEC0F24
D6F9EFE5
F9F21210
0C0B0A00
FF0507FD
1E041A0C
0E20F8F7
03FEFDF6
EE04F8FB
F9FEF50A
1110170E
0E150F20
241C0A14
211CF5F4
FFFBFDD5
E4F5EC00
F3F8F001
0C060900
FF0D0814
FD0F060A
271D010B
02FBFBF0
E0E8FF00
F60C0607
0A0BE8E7
D5CFCED0
F3FFEBF0
FCF9190A
FBF908FB
FBE30C0A
EF0A0305
FFFBE9E8
E9E1CEBD
BCCCBED8
D8D20FFB
00FD0309
F4E609FE
01100806
0A09F3EF
E3E6F4D6
BFAEAED2
D3DDFAF9
FFFFF605
F7FA030E
EE030CFB
0D020508
00F7FAFF
FDF1D6DB
D9E0F803
02FBFAF4
F3FEF40B
020B0DF7
0D04F6F6
FEE5FBFA
FF02F3F3
F7D7F400
0200DFE7
DA05F613
0E0DFEFC
09F7EBF2
010301F4
130CEFED
F9EAE6F7
FDFAD8F2
E500FDF9
01000006
FAEDF9F3
F2FBF7FD
03FF0BFC
FEE7D3F4
00F8E0E8
FC08140C
F7FD0205
0CF0F5FF
F90C050A
FEF51100
F1E9D3E3
00FCE7DC
F8FA1B13
020CF4F6
04EDF6F7
110E0200
0FFF0813
E1F5DDE3
020502D9
030B1802
FD0F0913
10F9EC0D
0007FE00
130F0906
190AFCF7
010103D4
140508FC
100CFB08
0B05F70C
F60600FE
0209120D
17090607
FFF3FBE7
2A09E0FB
1603090B
130F0F14
04030CFB
030E0C08
19141105
01FDF3F9
080CF2EE
0A050700
02FAFFF9
0B01FAFD
FDFDE31D
1A171200
FF000508
081818F4
FBECF8FB
03FA0DFA
FDFAFBFB
FEFAE320
1A1006FF
0302F7F1
DDD9ED02
F0050503
1706FE00
101725F5
03F00414
1DF1F9FE
00FEFCFC
E6D1E502
F6E6EF0C
15F1E8EB
FC0B0FFD
02081B16
21FBFDFF
03FFFFFE
FCFAF2EA
F4F6E0E0
E4E6FA14
2F09ECF7
FA071502
0000FE02
000003FF
FF02FF02
FB0300FD
F7FEFCF8
FBF8EFF2
01000003
FE0203FD
FDFFFDFD
02FDFF00
FDFFFD03
FE050102
00010403
FEFEFEFD
00FEFFFF
03030103
03010207
0E130E19
1A1301FE
FF060A09
0D0C0C07
FEFF02FD
0203000E
1004020B
0B09F4FC
1E1D100D
0C0A1016
040B1410
0503FD02
FFFEFE10
11FC021E
180D03FE
0B04FCF7
FAFAFBFE
FFEFEDFE
0602FDFF
FDFDFD02
05E8F206
010A0001
0E02E8F1
F9E7E9ED
01F8F9FE
FD0304FF
FD04FBF9
16110E0F
221D1305
01FC090C
FAEADCF2
21EFE8ED
F1F6F603
FFFCFDF3
11120916
0CFF0F15
FF050DFC
04070514
191AF8F4
D6EDF801
FD1005F7
06FE0005
F2FD13FC
FE00FBEA
F5F4FD0D
07FBEBE0
D60714FC
FE1614F7
FB040302
0D03FEF9
0208F8FF
F8FB040B
01F6ECE8
F31207FA
FE0A11F9
F0040A08
FD0101EF
FA090D0F
F6020014
0A0007DE
0107DAFE
020904EB
E50313FD
040CFBF3
F803E7E7
F9100B09
08FD08DF
0000C6FE
02FB02FF
F4EFFBF8
120904F9
0E0BF5EC
0C15F901
1409FBF1
05FADBFF
00FC1807
E9EBFDFD
000810F9
00F8E808
0F070001
13150815
15F8E7FA
FC021308
F2EA02FC
1100FCDA
E3F6FF0B
0C04FB11
1812FF0C
FEFBE4F8
02000002
04EEFBFF
0809F9EF
F8F00409
0B06040E
08000912
05110401
FD00F8FF
0BECFC02
040CF5E8
F4F70803
030401FA
00FEFA00
011515FC
04FDFB03
0EF1FBFD
0901F2DD
F10205FE
03F4EE00
F6FA0307
00FEFA00
FE02FEFD
FDF7FBF7
05F8FB03
01040406
04F5FC05
0D0D0B06
FE04FEFE
02FE0DF6
04FDF215
09F1F1FD
0404FDFF
F7F7060D
0600F7F1
DD09FDFB
02FD14E4
11E9F80A
F3FDF003
0AFC00F8
FAFC0709
FEE7ECF2
FF18FA00
FD000EE1
EDEAF3F3
F3F4FE09
05F9F7EE
EC0702F7
ECF4FA09
000BFAFE
FDFFFDE5
DDEDE8FD
EBFC0204
FFF8DEEB
F5F4F3F8
DFFBEEF0
F00B15FB
FFFDFEE3
FCED0303
F605150C
FFFEF107
F1E6EDE8
E3F9EFE7
F0FA16FB
FF00FFE1
EEE60304
FF0406FA
F6F9E7ED
DBE3DAEC
F00104E8
F8050001
03021907
010D050F
0CFD1009
F4D2D7D1
E5F1EEF4
DFF10004
0D00FB03
FFFE03FD
0505F106
080F0B0A
00DFE3E2
F90D04FA
10142424
05FE0201
03FEFE07
120D120C
FA0F1118
0F16FFFA
001A1806
0BFFFBF8
F9FC0202
02FD0003
F8FEFA00
02F90D15
0A050303
050D0F0A
030303FE
02FC0101
FF00FDFD
000203FF
FF020102
F9F7FF02
